F4FC
0E17
FA10
200E
D1E6
E9FA
0A02
1C2A
FAF9
EDE0
EAEA
1508
F9FC
1208
F3E2
0A0F
ECEB
0E1E
0DFD
120B
E5E2
0309
F601
1B21
E101
F608
F0DA
0005
08FA
D0E7
D7E1
FC0F
F511
3429
C3D0
0A05
110C
E901
0304
F70B
F405
1826
E007
111B
F8F4
C2AD
EAE5
1622
E6EA
2511
F814
F2EE
E2E9
1906
1210
EBED
EB05
1515
1819
0920
E6E7
F103
03FE
0710
E002
2535
2D2A
E9DF
FD0D
0E09
030E
DFFD
F2E4
1220
E6CE
FFE2
FBEB
2E33
0413
E308
FDEF
10F4
F1DE
12FE
0C16
F917
F4E6
D9EC
17F1
FE10
0D0A
090A
192B
23F3
0C12
2208
F0EC
191E
1C1E
1917
E5E9
FD05
0BF6
FA00
0500
D7FA
C9E4
F4F1
D1CE
0D08
050B
E5FB
EDF1
1401
FB05
DDE2
DEF1
FBF7
0C0E
E1D8
0A15
4436
1105
0CF9
0C11
0814
0EFC
1814
0107
0601
E9E8
F7F9
D5E5
19EA
E4E5
E3DA
DADC
E3F0
E8E4
0A04
FD04
D8E0
1402
071C
F9FA
F214
110C
0BF7
F7FC
FBFF
D7E7
F9E3
FDE9
FF05
E7F2
1008
FBF9
0B1B
E7C9
1115
FFF1
1B0C
2A1B
02F9
0D03
FBCD
F301
0510
E2F0
150D
04F7
0917
F0E1
E6E5
EF14
F008
EBED
E7F6
F213
2426
E0E6
07F6
2230
1E1C
FE0A
EBF9
F2FA
1F1A
E9FF
13F5
F6F9
00F7
F5DB
170F
061A
CFDF
D0E3
0A10
120A
0BF3
E2E8
E5E1
280E
E8E3
E2DD
0607
0EFE
381B
F4CC
1B13
150B
283B
00EC
0D1E
C9DE
0DFD
CDE6
0F09
2008
D1C4
0D07
C5CB
FEFA
1226
1F1C
EB12
160E
E8DB
E9F9
191E
F0F3
D3EB
1616
1B06
F3E7
04F9
1B1D
EFFA
FB03
0BFF
FDED
1804
E10F
FE09
F8FA
5743
01F2
D4EC
ECFA
EFEC
0F04
0E0F
FE07
1C0F
FCFB
0F08
FEED
FC23
231D
10FF
F3FF
F20A
041B
1718
CFF1
FCEC
FBF9
120E
F2ED
04FC
E2F3
0603
FCED
2706
FDEA
10F6
FC03
5432
ACC1
4C48
1B1F
EF02
1409
E6F8
3E3B
1415
F4F3
1013
06E7
3121
0EF5
0CFC
E9FD
2731
0508
2221
F702
FCFC
FDF4
0503
E5E4
FCF0
F1F5
F5F3
2008
F9FC
D4CF
03E2
06FC
DFD7
2123
2906
03FB
1B11
1C10
2710
06F0
D0E0
FDF0
F909
0E0B
F7F1
04FD
0806
ECF7
3721
BCC9
2629
F6FA
F1EF
FDF2
FF04
E5E6
F5F1
04FD
F701
1F23
E7E5
1712
1B23
04FA
FB25
09F2
1B10
DDD2
070B
E4F1
E7ED
03FC
0A03
D2E2
3926
0307
10FC
EEF2
090C
DCD7
1505
EE00
FCE7
FD16
BEAF
06FB
08F5
03FF
FE16
F21C
120D
DEE6
F4F6
F4F5
110D
E5EC
0BF5
FEF4
0805
D1DA
05EB
1D28
0103
E3E2
0B0B
F3F0
FCF8
E2D8
292D
EBE5
FF0A
F3E6
1630
3E34
F7F9
D9DC
00E5
C1BD
1216
1810
E1FD
D2E6
DAFD
FE03
2A30
E9EB
F2E5
020F
F3EA
D0E1
F0DE
F4ED
1721
2026
170B
DBE8
1E0F
0CE4
F5E6
FBFA
FDFD
0908
0AFE
E6F3
E6E8
E7F3
F1F4
F2E1
06FB
08FE
D0EA
E7F0
0604
E5EC
2215
1C08
EF07
150F
EEEA
EBEC
EE09
FCF6
D6D7
FE0A
EEE2
10DD
F101
03F9
F718
FDD7
00F2
F1E4
D0DA
0612
3524
1312
CBC8
E2F3
1C0F
FE0B
E4E2
D9EA
1410
0C08
1612
030D
1D16
1720
0AFF
24E1
0102
F8FF
EE19
0419
EBC3
16FD
11FF
E1E1
F1F6
E8F4
2BFA
FDE3
F4F3
F0D3
1821
FDE1
F1D6
2F30
FB0F
E3E4
DCEC
EDD8
D2D0
D8E0
0B00
04F5
01E1
F0E9
150B
FD07
0900
3C4A
C8DE
1112
0810
231F
DDE6
0005
0101
F5F5
F0F4
D3D7
0703
EEF3
09F8
0607
E0FB
EE11
08F8
0007
D806
02EA
EBF5
0300
F8FD
F80D
010A
EFC5
0317
E403
DBE4
060B
F02A
0801
020C
0212
34EF
D7DF
05FC
D60A
DC08
0818
002B
D9FA
06E8
032B
0F18
FE04
F4EC
FB0C
FCEE
0DF5
0218
07FB
03F9
FA07
FC16
FC09
0500
EBFD
0607
FE00
EDFE
EF12
F4F6
F309
ED01
2305
01F7
060E
0E03
1DEE
0701
291D
0FFF
27ED
02C9
2214
E5EB
F53A
1607
0906
05F0
060A
E505
09F4
0B02
FEFD
0206
002A
03FE
09F7
0BEF
EDFF
EB05
10F3
D21F
22F8
F420
0D03
CA02
EC10
FDF9
F5DE
FE03
ECFA
101B
F502
FAF6
30FE
DA1C
0000
05F9
03FF
1200
1809
FF0C
0A03
09FD
F90D
0017
F41F
15FC
FFF8
0A04
F1F9
EC01
05E7
C503
14F2
02D5
000F
09FA
FD0A
EDEE
03FF
EDF7
0612
F0E0
02DC
FCF7
1BED
EF15
1614
1906
FF29
05FD
ECE2
03F8
1102
F0FD
01F9
0602
0605
FCF2
11C6
03EC
1EF0
E3F6
FF0E
FBF3
FE02
FD00
1305
F912
0703
01FE
FFFF
FF20
FC12
0CEE
FAFA
0F0A
F7F9
F701
04E8
200A
FA0F
F6C7
E60C
34EE
D727
34ED
FDD6
F2F8
D6FD
04E4
F30A
0412
27E3
F8C8
010A
FEFD
FFFF
F4FB
1709
FC1A
F601
FCFF
0100
002F
F92B
0F00
FCFF
04FE
02FE
F5FA
FEF5
E8E5
FF02
0201
0800
F506
0F04
F0FE
FE0B
FB12
FB2E
15F1
EDFC
0109
FCFA
FCFB
F1FE
E6D8
F503
F70A
23FF
120C
F6F4
F4EF
F5FE
F811
EF09
02F7
E6FB
080A
01F7
1500
FC05
F0F5
FCF1
0822
0006
4BEB
28F3
E80F
E1FC
D5EA
F3EB
EDE6
34DE
03DD
1C01
051A
1E1F
2A0D
FBE9
F405
EBEC
10F5
F6FC
FD06
F7E9
14F8
F518
DD23
07F9
0012
CE1C
19F2
E1F2
FE18
F9C7
16FE
09F2
F301
FBED
EFFF
F100
DFE1
08DB
F30E
190E
FBDB
150D
00E2
04DB
D4F7
0F0E
00FF
26D5
F501
07EE
010B
F9F1
F40C
FF23
0BF9
D8EF
0AFB
0FF1
F3EE
06CF
4AFF
05EB
0E9C
EF04
E2FF
D21E
170E
FB09
FFEA
D606
0819
01F2
00F2
34F0
E6D3
0AE5
E0E3
1005
FCCF
3C07
F302
06FC
DFF2
F1FA
F312
0F1B
0CD7
0CEC
0FEB
0801
D911
FDFA
02F9
FEDB
FD04
2D0F
0617
F700
F7FE
F7F8
012A
FD33
12E5
0EF9
0AE6
0809
F904
E510
1CFC
162D
1421
06DC
3BDB
FDED
E102
FEDB
EFFC
1C05
03DA
0006
04D5
D8FB
FEEF
0505
0210
0202
F303
00FC
03FD
23EB
DFEB
00FC
F602
0D0F
03F6
FADF
EF03
DCF1
EE03
FFE8
D7E2
FAFC
EE13
03F7
2008
EA07
F700
09EB
090D
0A1C
0614
E5F2
19FD
FE0D
D4ED
F655
FEF7
06E5
DF16
C906
8CF9
3F11
3012
11C7
FFF1
D612
F5FD
104A
0629
0A15
F826
F83C
150C
C21B
04FF
D3EC
2000
CF01
EFF8
F5F6
FED1
F8F2
F2FA
EBE7
ED10
EA24
FDED
1440
EEE1
FE0F
FCDE
DC0C
2FEC
FB06
F304
FFFA
FE07
2D0A
0D29
0D09
00A8
1FFA
EC01
ED23
CA11
12E9
F5F3
DE07
19F9
EA06
0515
05D6
09F1
DA13
020C
F0E2
FEFC
D703
0FFC
092A
11C0
0D1F
0125
0312
07F7
F2F5
1D0E
F3F9
03F9
190A
082B
05EE
F912
1DF4
00FF
0408
E7E6
F7ED
09DC
140B
EA06
03FC
05F6
F0FD
F00A
F708
0AFC
E7FC
020F
04FA
DDF4
0C10
0608
F5D8
15DF
ED0A
FD05
1802
F5F9
05F5
F304
EB02
FEEE
CDDA
FEEC
EDF3
D9D8
17FE
13FA
04EF
E806
ED14
EBF6
0408
E5EE
19E9
08FF
F904
1504
E8DE
FA29
100A
F3DE
E9FD
DBED
EFF0
1BFB
0D0C
FC04
EFE5
0FF8
FB17
F30B
F906
0AE6
EBEF
000C
16FE
0DF1
0506
E202
FB1A
EE14
1CFA
EF06
080C
E0FE
0C0B
0705
020B
0D03
18F6
0200
1400
F910
F90F
F5D4
0806
0CAD
C6E4
1200
DFF8
0A10
041A
01EE
FF04
0127
D3F1
FCE5
1D17
D813
FCFB
F9F5
040A
0D06
1004
0315
07FF
06F4
F9ED
F709
0316
14E8
04F3
0EF5
05F6
F509
0CF1
CFE0
F40B
04D2
0310
FBFE
0DFC
F7EE
0508
F7FE
0D0F
0E02
EDE9
0818
F807
E0E0
0615
180D
ED1D
1510
CAF0
8107
DBE8
0200
F605
06DE
F8E1
E719
150E
05F2
EBF3
F9F6
F906
29DE
0216
0FEE
E207
1BEB
EFF5
B400
03E9
FAF5
F10E
E706
0AEC
04EA
0501
C415
FDF9
FC06
F9E7
F6F2
070E
F817
0001
F1FE
0108
0022
FA2D
1109
FEF8
15F0
F4FF
F9FB
031A
FC0B
04F4
FAFF
18FB
F51C
0B01
EEFA
F4E5
0015
0134
0EFA
0F00
0FEF
F1FD
04FD
F0FB
0500
EEF8
F1FC
E3F0
E1EE
EFF6
1EFF
F5F1
EBD9
F6E9
E706
FC04
F2F8
F5E8
FBE2
E9FD
D80A
E637
EFD3
0DFA
D9FA
E4E6
E1F8
000D
E5FB
0A15
08F4
F5EE
0602
FE09
F009
FCF4
E4ED
FA19
F9F3
27F5
0428
0409
F603
07FE
0233
FB2C
0C0D
FF08
0909
FD06
090C
F7CC
EA12
01DF
EC11
F9F4
FCFE
A615
EFFC
0D22
04F2
FFF5
ED03
040A
F20D
FAFC
D6F7
0709
F5E9
FE09
06DE
1506
1110
F2FB
F304
0504
FE10
FE2D
07F8
EFF8
09F2
1103
F712
09F8
FBEF
ECE8
FC14
F000
04F7
EFFA
E602
FE0C
E9FA
0C08
13F3
EC04
0008
FA0A
EE25
F808
2A03
F60E
E5DB
F115
04ED
E8F3
0F11
F3FF
12F7
3DFC
EF2F
1311
15F6
1E12
8825
F8E1
F6EF
F0FE
03FD
0CFC
F902
F4F6
F8FF
0307
F20C
FB0E
19F8
F5F3
031B
FA02
EBFD
1BFF
F7E7
13DA
0BB8
F60A
E807
ED0A
22FA
0BFF
0DF5
FB15
09CE
F01B
0010
0911
070E
1BF7
F712
F53A
FEDA
F7FF
EE11
F201
E90C
07E8
FDF7
F70B
0FFD
BCFD
07F1
F7E9
FDD6
15EA
2B11
EE00
11DC
C330
ACEA
10EA
0CFF
05DF
F7E3
F9E8
E522
F704
090D
00CC
08D2
00F7
FBFA
05FB
06EF
0315
F30E
F2FE
F501
FC05
0027
FB2B
17FD
F2FC
FBF1
F903
F7FA
E3E9
1CF1
DFEA
1F36
04F8
F4FE
02E6
05F1
F8FE
FDF9
E10B
0223
FE1B
110C
CE05
FA11
FAFB
EC00
2216
FE42
E705
F011
1701
11FD
09E0
0002
0004
0BED
FEDC
17FC
CEC8
05F2
0808
EA0A
F7FD
E300
1FE5
DD21
FD0E
1001
0CE6
0A24
FA1C
040C
0DEC
0DEE
E7FD
FE08
04FC
EADB
FE1C
F303
1DEE
E813
250A
F603
0906
0420
082C
17E8
E008
0E0C
EAFD
0AFE
FA0D
00F2
FB00
F2F3
12FC
FC1D
FEF9
FCFF
04FD
0028
FA26
06F1
ECF5
01F7
0102
F411
FBEA
09E9
041F
0C1F
112E
19F9
0708
FD0A
03FA
0802
E505
0803
1BFB
050C
06E8
0726
0112
FEF4
F3FB
FBD6
F403
1303
FB0F
E40A
0402
0408
0623
0712
F20A
150A
0215
EFF8
1F07
E804
04F2
07F4
EFFF
FDFD
0E09
0104
FCFE
FE2A
0434
1D1D
FE03
1EE9
EEFC
2304
05EA
F4D9
00ED
0311
F304
DF08
E609
FFFE
0106
052C
FC1E
170C
0AFC
12EA
14FD
0305
0DEE
F908
0A01
FF11
F1FD
03FC
F20F
02F9
0203
F901
E416
FEE0
0BFB
10F8
DB17
FE00
12B4
27F3
F6DC
E909
1FFF
24EE
1FEE
9F05
090E
060A
0E20
1122
F619
0CFE
FC01
F225
0000
0000
0000
0000
0000
0000
0000
0000
0000
0000
0000
0000
0000
0000
0000
0000
0000
0000
0000
0000
0000
0000
0000
0000
0000
0000
0000
0000
0000
0000
0000
0000
0000
0000
0000
0000
0000
0000
0000
0000
0000
0000
0000
0000
0000
0000
0000
0000
0000
0000
0000
0000
0000
0000
0000
0000
0000
0000
0000
0000
0000
0000
0000
0000
0000
0000
0000
0000
0000
0000
0000
0000
0000
0000
0000
0000
0000
0000
0000
0000
0000
0000
0000
0000
0000
0000
0000
0000
0000
0000
0000
0000
0000
0000
0000
0000
0000
0000
0000
0000
0000
0000
0000
0000
0000
0000
0000
0000
0000
0000
0000
0000
0000
0000
0000
0000
0000
0000
0000
0000
0000
0000
0000
0000
0000
0000
0000
0000
0000
0000
0000
0000
0000
0000
0000
0000
0000
0000
0000
0000
0000
0000
0000
0000
0000
0000
0000
0000
0000
0000
0000
0000
0000
0000
0000
0000
0000
0000
0000
0000
0000
0000
0000
0000
0000
0000
0000
0000
0000
0000
0000
0000
0000
0000
0000
0000
0000
0000
0000
0000
0000
0000
0000
0000
0000
0000
0000
0000
0000
0000
0000
0000
0000
0000
0000
0000
0000
0000
0000
0000
0D0E
C90E
0A12
F413
0633
DFF5
23F6
1828
05FF
17FE
EEEB
34F3
F5C6
A2F3
0C14
1212
32F5
1EE1
18F9
EDFA
DADC
0614
0DF1
E51B
E2FB
0C34
120A
102D
F6F8
C6E2
EED2
1104
0A03
0C17
FA32
0609
DE09
2A2A
EDF6
C8E6
37F9
19DC
B2F7
E7FD
F829
0D06
2010
0E16
A6FA
1000
F9D0
0CCC
031D
33EB
1924
2508
1A1F
02DE
0219
0504
F70E
EE1C
DB0C
061A
0CFE
02F1
FF0D
0A05
07EE
1D04
1912
21F8
061A
F808
26DA
C5EC
F110
2600
06E5
FAFE
11E1
1500
181D
15E7
E712
231C
0E0F
1705
DF2B
F9FB
1AF7
061A
FCFF
BAE0
08EC
FD04
F8F4
17F9
29DA
C1F6
EADE
19E9
071D
C711
E612
1114
0B1D
3125
F6ED
FBFE
F909
F70E
FF0B
C9C8
D53A
064A
1750
D6F6
FEF6
0902
ED1D
E4B0
ED24
13F2
23DA
0FE6
5031
16F8
FEEA
F7FF
DFFB
0FB8
FA29
F50C
06F9
200A
1227
E9E2
EA16
FB03
F7FF
1AFA
FE29
1813
EF0A
0605
F612
EF2E
1023
1E3D
FEF6
0311
0E04
24CA
0B43
EEC9
11CF
EACE
3538
F00F
D0E8
0718
10F5
FFFF
00FF
E721
1BFA
F829
EFD4
02F2
0812
11F2
FCDF
A6DF
18B0
02F8
C8EE
EC14
F315
FD12
EE05
12FE
2815
FA19
FA1E
F1AF
DAF1
A9E9
FE13
1F0E
2514
F316
090D
C2FE
F327
12C1
0816
0330
FBE8
E402
9712
2AD8
0DFC
E8D7
02B9
1609
1632
0C12
A1FE
220F
0040
08F9
03F2
0121
16E2
CFF9
1721
FE1F
C408
A3F9
0B16
42E6
EBE3
F212
D239
27E8
EAF3
C9EC
0419
FE19
2414
213B
C4E0
C0E8
ED10
1BDF
021F
2E14
FE10
2B29
F1ED
08E1
D506
EB01
1412
DDDE
08EA
25F2
FE22
D01D
F00E
F4F8
F0E7
1DEA
F907
E2E5
22F8
B01C
3410
030C
EC11
ECF7
0C05
2216
DCAD
270D
0A18
3FD5
F0E9
4A10
1B12
0E0D
CFE3
DB00
D00A
E726
1522
FECF
0A33
161C
D615
E22D
13FE
14EB
0AEA
0800
E82C
E00A
FBF7
F40B
04FB
F347
0003
2400
1304
F41F
F31F
14DB
1A21
0202
FD03
D3CE
060D
CBEB
D1F6
130C
0909
0C1D
0DFB
161D
1E0E
E31A
181F
EB03
11FA
D4F4
0214
22E2
E7E4
FB02
FCCF
0514
0D19
F220
04DD
FC02
1F2A
DF1A
1914
2721
15E8
CC21
0121
FBEE
22DE
F50E
B707
26E5
2211
01FB
1307
B8F0
010F
FD15
F0BA
1820
F9D0
D22B
FE08
3CF5
1CFA
1CDD
04CE
E90C
0BFE
1D2E
0E02
FB33
F809
D309
47F1
E1AF
4100
0BF4
15FA
A7E9
14FD
F5D9
01D4
FA21
D005
F6EA
E914
E41E
0AF4
1C0E
4021
FB12
EA04
1202
F219
29FC
FC19
0A1B
0404
0E11
F8FD
0B06
F7F0
FE02
23F0
FD0E
0CF5
03F5
05EF
E6FA
F00B
0C0E
F2EF
E9EC
DDF2
F20A
FCF5
09DE
1B29
0CE3
0907
1011
1640
E223
FB19
DD02
06FD
1CFD
FAED
140B
FE00
1E07
DAE3
ED12
F2E9
2C18
2B20
E921
1E35
DABE
22F7
E3FC
F322
F5EB
E9E5
E516
1ED7
F3EB
190E
ED35
E90C
2EF4
210A
D310
22D7
2ED3
2B0E
37D5
0AD5
B708
3813
03EF
23E9
F634
EE15
EEED
01E2
07F4
2A07
0211
B333
0939
FA18
D50B
0EF9
2DF8
1CF2
E20E
00D5
050D
11E9
2028
EF0F
0C14
140E
F62C
ECC0
23DD
F310
2E01
FCD3
97E0
0FB4
03F2
EC18
1AFE
FB52
E440
EE27
15FD
CDEE
F000
E5F7
30ED
D024
08DE
F7D9
4700
20CA
0AE3
0DF3
DE03
FB05
F416
1211
15EF
FC1C
0BF9
DEF8
E118
ED36
09EB
E2D0
2CE8
1C24
EEF8
FADA
07F6
DA10
F415
1F13
F424
12F1
F411
E4E1
D42C
0C0E
32E8
FD33
2ECC
E8A9
02E7
F4E9
D0F4
BA2E
FB09
0414
F1F1
F3AC
2907
01FF
F1D4
DCF6
D710
FD1C
08FE
0342
F4ED
EEE0
16FF
FDE2
DFEC
0E43
060E
F5F1
1908
3D44
FD19
E433
1DFE
01EB
36F7
08DE
FAEC
F2EB
FEF5
F7E9
E0D0
0908
13E9
E213
1CEF
0213
03C9
0019
17ED
06EB
D008
141D
F503
F324
E109
02F5
1E13
E719
DD1E
0CE2
FFCF
1222
D030
E50F
CCEF
FDFF
2BED
FB2F
E005
15EA
E8F7
F601
0CA4
D4BA
0D1A
0FD0
001E
44F6
E6C2
03E4
EF10
FD25
F61A
220C
1C0E
0AD9
EAF1
D60C
EF28
0C00
F5FE
29DE
1623
5102
F40A
0504
15FA
0DED
341F
1318
14FF
EFF0
23FA
2316
F612
13E5
F64C
02FA
FFEC
0624
F41F
F80E
F1EC
F500
03ED
F909
FFFC
F5FF
1F1F
040E
12DC
F6D6
E1D3
0707
0409
E9F1
E60C
FAF2
FD0D
0AEA
0B13
F412
020F
00E2
0414
0201
0506
F4FC
0606
1E08
EE16
06C8
FDFC
F1EF
07FD
F409
F40B
F7E8
F4F1
F7D7
E505
F403
05F1
1001
09F0
30F6
012B
FACA
0F01
FF1E
09EB
F8FC
2DD5
F3BD
FBF1
D70E
E809
10E3
1518
20E3
0227
1B15
0F1F
FDB7
1CFE
25FB
27FE
ED25
10AE
1F18
ED0F
F9EE
0603
D7E9
18FB
05FD
04F1
1C2A
1B39
1635
0705
DA05
0112
160B
150D
FFF2
0A14
D115
1703
FFF1
D521
F117
1EE3
150A
1811
F422
0E11
D744
ED12
FB11
F1DD
0F22
F1F1
F8F5
1212
FB08
091F
DEED
FC07
22F9
DA13
EFD3
18E0
06E7
E621
F20F
0104
F7E3
EEF1
3107
F2E6
D3F5
FCEE
17FA
0BDA
1202
1117
EC06
C4EC
E602
EADD
F6E9
F7F8
0A1B
00FA
D2EA
14F5
FD09
E90A
FC11
EFD5
03C2
F5F0
0388
0426
1906
31F9
FF30
0D10
140C
F100
02EC
2020
D6E1
2031
0DFA
FE0E
1622
180B
BC27
E216
0503
F316
2007
F29A
B5E5
C905
00E9
1606
05FA
F2DF
08DF
0C32
29E0
DCFE
3336
D70F
F50D
F8F7
F4F4
062E
08C6
04F5
06EA
1314
CCD4
E2FE
0B08
CBEF
1FA0
041C
0AC3
DD0B
EF15
17FC
F10D
E5EA
FE09
FAEC
FD0F
08E9
0B00
FAE7
F72C
B005
0BAD
18F5
81F5
C4D6
DBEB
E329
E032
D5B5
0920
1B07
F6F8
CB06
11E7
F002
0800
0CE5
2334
3129
E428
280A
17FA
2322
030D
3803
E5B9
1A10
FF05
F60D
F710
F60D
FA09
E91B
1CE0
ED10
F006
EC13
FB05
EBD0
FC16
B0CF
3844
0705
FFF7
011F
FDF4
1704
1D0C
03E8
34F6
FF17
101A
F5F9
F80D
D6F9
0801
05F7
0D0D
0507
FDF5
0113
0FFF
FFEB
EAE3
0EF8
1DF3
2501
390B
0533
1813
BE07
E42C
F6E1
1B1E
FD22
F4D4
E422
F301
F025
F303
29D5
3804
EB2E
0BD1
F6EE
1634
0E0F
F9DF
020A
202B
0A0B
F9EF
D117
080C
F6FC
07EB
F321
2A0B
FE2B
F3FD
F6BD
000B
43E6
F415
03FE
DDF8
F0F9
F8C2
E4FE
F736
F01B
091E
DDBD
0DD9
F0F5
1F3A
FE30
0E31
CA09
07EE
1FFC
0A0A
F60C
0DEA
FAF9
22E3
060A
0D1A
253B
1FEB
0825
0018
FFFD
F11A
21FA
09E9
D0E0
FBF0
09F4
F8F7
0714
F9C2
06B6
F60E
040F
09E9
110F
FE28
E4F4
0118
1414
021B
E912
F0E5
DCFD
FD23
F403
00F9
F7E5
16FC
EFF5
15D0
1A1A
EE23
1A0C
F60E
0630
040E
1500
E0C9
0EF5
F7E2
0806
29CF
E4F2
E3E9
1BFB
0515
0D1A
DFD1
F0FF
03D0
2408
E410
CBF7
FBD7
FFA5
FC02
0508
0D1B
EA01
F80D
0EF8
040C
FEED
F20E
17FD
030A
E914
2B18
2004
F316
FC16
11D7
FA0D
0407
FCEE
FF09
EA08
DEF1
07FA
FB04
F405
F30D
E814
FB00
12DD
FFFE
FE37
F206
010F
F008
100B
FD08
F903
12FB
1617
0DF9
F6FC
FB13
EF12
DF09
F902
F4ED
00C2
0CE2
FF07
2302
FEFE
1FF6
0203
F30B
1212
EAF4
E400
F1FF
0708
0203
061F
E9FE
141B
0BF7
FAFF
02FE
0216
1607
040D
FB03
1AFF
F105
F6FC
02EA
EFEC
D7DE
0201
F0E7
11E4
1017
FE0A
2E07
E0FC
050B
F9E5
0EF7
1AFE
04FC
0813
121B
0DEF
1512
F216
F600
0B19
F3FA
0F07
F9F0
0FFE
F7E7
0201
0A07
05F3
F8FF
03FF
08F8
091D
D01D
F113
18F1
E9BF
FADE
0CFD
D906
1703
18EA
11E7
06E4
0012
FC05
05FD
B4D6
E9F4
F8F4
F7E4
0EFE
0B09
FE05
FF09
ED05
06F9
FFFE
FC03
0400
0003
0BFA
ED06
F503
FE0D
FAF5
F402
01F1
F5EF
0403
FBF8
0402
0601
0700
FCE7
12FE
0006
0307
0E0F
0408
040C
0700
0B32
0B07
FF03
FB08
0707
0B08
0611
E9F0
FE02
0C0E
ECF9
FFF2
05FF
F7FE
FE0A
1310
15FE
F7F6
FFC4
FFF0
FC12
110A
FEEE
FE15
FA00
FF09
F307
FA00
FFF7
F416
F010
0DF7
0C19
F9FB
F624
E2FF
1006
0E0A
1DED
0E12
0CF4
F40E
EDED
F0F8
19FF
F70C
0828
EE13
250B
04ED
EFBA
21FD
F1FB
E9FD
1218
FCD8
FE06
03F2
010D
E3EC
EBF2
D9E2
FBF8
F1F5
EC0F
0A07
1626
FDFC
04F6
0205
0209
0EFE
FAFE
E6FE
0002
F800
03FF
F1FB
F600
FEFF
FCFF
FF06
07E0
FE02
EF0A
FE01
FDFB
EAF5
E4FF
FE0A
FC0E
FBF8
ECEE
FB03
FBFE
FDFD
05FF
F5F1
F8EF
00FE
FDF3
0302
0215
01FA
02FF
FAF2
0AFE
FB02
0BFA
04F6
F800
FCFA
FCF0
06FC
0315
FE09
FDFC
F907
FE03
F80B
05F8
02F5
F80D
FE04
EF05
FA02
03F3
F404
00EF
FAF5
FAF8
FDF6
05FF
0F03
EC2D
FDFA
1115
0817
220D
FB03
0A08
0704
F6DE
1DF5
F002
EFFD
DB60
0813
FC13
360A
F509
09E2
09E8
EFF7
06FC
FF11
00FD
250B
FE09
0CFB
FFE9
F401
FC1F
00F9
050C
11FE
1603
FBFB
0D05
020A
FFF7
FFFE
FC09
F908
07F0
0403
0B01
06FB
0019
1918
04FE
EB08
030C
FA04
1309
11F2
FCF6
FE02
06FB
180C
FF09
0700
F61D
050E
030B
F401
06FF
0013
E2E8
05FD
E600
0407
F610
F200
14FC
020B
05F4
39FA
CBF6
000B
E706
F2E2
020F
1CFC
0FFB
FEE5
040B
E010
1100
F506
EAF3
15FB
00FE
FFEF
FDD6
F602
05FA
FDFE
0003
F712
020C
FE01
FAFB
F102
E8F0
F308
07F4
010F
FF07
2018
10F2
0601
F715
0DE0
E017
F700
09EA
EBFE
05F1
F4F2
FA09
EF00
E9E5
EFFD
F805
E9EF
F115
01FC
F92D
F10D
04FE
FBFE
E502
EDFF
1505
FFF4
E807
F806
07DF
020E
1A09
1F07
1AEE
0106
E856
0EE2
E8EC
FC06
ECEF
EA17
EF16
EA09
0611
E6FE
F406
2BFD
FD16
E7FE
FCC2
EF09
062F
FBFF
0DFF
00E2
04F6
E7FC
FC02
0D00
0FF4
030A
19F3
0605
12FC
C807
F3FE
100B
1034
F8DF
0CDA
DA03
05F6
00FB
18EF
F000
EA06
F501
11FF
DB04
03EA
F3E8
01D0
F5FC
0908
0800
EF13
0BF7
F810
F6E3
0B06
02EB
22FA
EE06
020D
05E1
1AF2
E7EF
E800
0216
1CA8
0113
F9EA
E8FD
FBF6
FD1A
FDF6
FFF4
1417
0CF1
0304
CBF6
DDE3
0621
0EC0
0700
0AB0
FCF9
000A
000B
F613
FCFD
FBFD
00FB
00F7
FFFB
0AF7
FEF8
F1FB
04FF
06F6
FE02
0AF9
00FA
F404
02FE
F7F4
FDFD
0204
FCF7
F61C
03FF
00F9
F407
FEF7
F5FC
05ED
F503
F8F7
00F5
FB04
1810
101D
09E6
07FE
F909
12E9
E70B
17F4
01DF
F4FB
FF09
F9F4
0800
16E7
0513
0501
F204
08FB
F105
FFFC
0DEE
F615
03FB
EFFE
E409
FFF9
02FB
E601
FD02
F1FA
F605
FCFF
FFFF
FBEE
0912
0903
0FFD
0DF7
06FD
F8E6
1012
F20B
CBFB
1406
DF01
0106
1809
FA00
1109
EE08
1903
F801
D1FD
16FE
0802
FC0B
000D
0504
FB11
06F4
FBFC
1647
FEFD
FF0C
0807
010B
0102
FA07
0D07
0E02
0707
FCFA
FBFD
FDFC
10FD
FF03
02FE
050D
0104
040A
08FE
04FA
FBF9
0FFD
F310
10F2
0CFF
FE0D
120B
030D
0907
09FB
0415
0709
F202
FD00
FCFE
FA01
FE06
F3FA
0906
FC04
02F7
05F3
050A
0500
F801
FFF8
FD01
FD22
FE04
03F5
F7F6
F903
05FB
0303
F8FF
FF02
F700
0605
0CF5
02FB
F6FF
F9FD
F600
03F7
FBF8
01E2
F5E6
FE07
FBFA
F802
F2F4
0D21
0402
F901
E802
FF07
E2F2
F9F8
F803
FA10
FB08
0201
03FC
FD0C
EFFE
F6F8
F811
050D
F5FB
E9F6
FEF4
05F7
FFFC
00EB
F2F8
05EC
F806
F0FA
EA03
F30C
0506
F100
FEFF
0410
F5F5
F5F2
F710
02FF
00F1
FDEE
01EB
E935
FE1B
0000
FAFD
F614
F5F7
0009
130E
0413
F001
1513
27FD
0DFC
F50E
F123
F7F7
06E8
FD00
FCF3
0006
000D
02FE
FDFF
F3FE
01FE
01FF
02FF
FDF9
FF04
0905
00FD
0301
01F9
FC00
0106
FA07
03FD
F3FE
FBF9
03FD
FC09
FCFC
EFF3
F902
FEFD
FF01
07FC
FFE7
03FD
0902
0A02
F9F1
05F3
0700
0703
03FF
030D
0305
F70E
FAF9
04FD
F30A
0010
FB07
FEEE
01FF
ECF5
0DFF
00FE
0405
06F7
0D05
FDEB
0C01
04F9
12FA
FF01
FF05
000B
10FF
0204
03FA
F800
F90D
0621
02E5
F303
FB07
05FC
E9FE
FAE7
03FE
FC09
FEFA
07EA
0700
0621
1000
FAFB
F6FF
0011
0009
06F2
08F5
FF23
020F
FF0C
0503
0706
FA0A
E710
F807
0016
0802
0901
F9E4
00F5
1700
0807
07FD
F905
FC06
0013
FAF0
FFF8
F402
FE06
FE0C
F5F3
0009
F5F5
0BFC
0CFE
0603
0305
0101
05E9
0501
EA07
10EE
F6FD
0801
F715
0F02
010F
FCFB
FA04
0017
05E9
1701
06FA
FF0D
03E3
F6F4
FE0C
08F6
F9F2
21F5
0C03
01E4
11A3
0F0D
0709
FE11
F6F2
FD08
F2F4
07E3
18EC
F600
0CF8
FF11
F5F2
0918
FB32
15F8
0B28
FCFF
0401
06FF
F7F4
0806
FE0D
0D09
0107
0702
F301
060C
FF06
0AFC
F2FD
0807
FAF9
02F2
17E8
EDFD
090D
0202
01FC
ED08
0AF8
FBFA
F213
05EE
FC04
0AFB
0806
0304
0E08
07FB
FE08
F40D
0210
06FB
0805
09F8
EEF0
FCF5
F811
FDF6
EAF5
1306
F5FC
EB01
FCFC
FE01
FA0B
12FB
FAFB
F901
0010
0416
F90E
0909
0F02
0706
040A
110D
0F12
F1FC
FB10
0603
E203
E90A
0EF7
F4E8
F2F5
0105
08EE
F5FE
F1D6
F705
02FC
FB00
E4F1
FFF9
09AB
06DD
0DFE
BF17
0707
E91A
0BF3
F509
E613
060E
0714
C107
1A04
FC02
F12C
03F7
1256
EDFB
F509
080A
F618
F8E6
E20B
FC0F
0C0D
EFF7
0D21
E8F3
F609
160E
C506
0E07
EF8F
EFFE
010D
180C
0BF4
10F5
1501
0A07
0205
EA05
F8F7
DCF4
F6F9
04F8
FE1D
0300
F7CC
FDFF
0D01
16EA
E212
11F4
FB0B
0703
1803
EF08
1E1E
02F1
05F1
CFE6
C0FF
FB01
FE50
F910
030C
2207
04FF
00DB
0FEE
F808
0AF9
FC02
FD01
08FE
00E9
01ED
F4CC
EA01
F5CE
FDF6
FBEB
FD01
0C0F
FBF8
FC00
F2F2
01FE
00F7
E4FF
FCF2
F4FD
EEF5
0900
FCF9
04F7
0805
FF06
FC09
FBF7
D914
DD04
080E
F8FF
05FB
0309
0E12
0106
09FF
1017
FEF1
0512
0202
E301
F509
300B
EB07
FDF2
011A
FBE9
FFF4
FCE8
F507
07E6
C401
1BFB
07DE
F8FC
12EC
19E8
DC0C
E9E9
F017
FF02
0E0D
F50A
060D
1D06
050E
0E16
C5EF
EE32
0209
F220
FEEF
FE06
0F06
010D
14F5
15FD
FFE8
FCFF
DEFF
08F9
06F1
F00E
1FFC
FAF2
0000
EAFA
0A1D
ED00
FAF6
1020
FCE8
050D
0605
0220
FFEE
E8F0
01FF
F3F9
FE0E
FAC8
0607
F901
0103
09FD
000F
F915
FFEC
F4FC
08FF
1201
F603
11F2
020A
03FB
1C00
F0EE
0610
FE2F
0A02
0A00
0205
0D00
04EE
1505
FD03
FF1E
FC12
FB0A
070D
08F4
F305
F505
F2F9
01E7
FDFC
000B
F80B
F8F9
FFE7
F9FB
0C07
FBF3
FD03
08F2
F8FD
FAFE
1C06
04F9
050D
07C2
FFED
0709
E903
08F7
FFFA
07F4
00DD
F30B
0107
F8FC
C4FF
FFEC
FBF8
FB02
FBFD
0526
F803
FAFC
F906
FBFF
FC14
FDF3
02FD
F60A
F2FA
16EC
FE02
02FD
F2FA
0BF2
F401
002E
05F8
EE0C
0C06
E8E4
F4F2
F51A
EB28
0E1D
F400
1313
09F9
03FD
E912
0101
ECFB
03F7
0803
F706
D0F1
FDF9
E5DF
F00F
05F7
1212
ECFC
FF0A
F6F5
0313
DD07
E1E8
0404
F34F
F7D6
08ED
DE02
1A12
F203
16FD
FD16
E418
F701
070B
EBFB
0A0A
01E9
FAD9
ED08
0709
0500
EE06
0F1A
081C
FAEB
F505
FF12
09FD
EDF6
F1FD
E9FD
F303
3001
DBFD
0A02
F6AB
0A1B
0705
FD09
F5FD
F616
F8E4
16F1
F90A
F8FD
0B08
EB0E
F600
06F6
EE30
FC00
FBDA
FAFD
0000
FDFC
FC03
FF00
F9F5
0200
02FD
FEF9
FCF8
FBFB
FAFF
FDFA
00FB
FBFF
00FC
0100
FBFA
FCFE
FAFF
FD04
FD00
FEFC
FB04
FBF9
FDFF
FEFD
FFF4
00FE
FEF4
FA06
FFF8
F703
EAFE
F504
F708
02FD
F3F3
0E03
FF1A
04F8
EBF5
09FB
01FD
15F5
F7FA
06F9
0115
F501
09F4
E903
0500
0A0A
F9FB
05F9
0000
F8F9
FDF6
0BFB
FEF4
F70D
F9F2
01FF
08F6
F9FD
F80A
FD05
09FE
0806
02F3
FC00
0100
01FA
0000
0406
0305
FF08
05FD
FFF5
FBF4
0204
FDF9
F5FE
0406
FDFF
03FF
03FB
F901
FBFB
02F7
FB00
FFF7
FF00
0000
FE04
01FC
03FE
FCE8
0204
0509
0405
03FC
FAFD
FF00
0202
FDFE
0905
0309
FAFA
0DF6
0200
0215
0C0E
0200
F103
F605
F40B
F5F8
03FB
0305
F9F1
F4EE
FF08
FBF5
F4FE
F8F1
FAEE
0A13
F9FF
1906
05FB
0203
FCF8
FF09
020A
19F3
EF01
27F9
02FE
03F5
CA03
FDF3
EFFA
152D
04E8
0A01
2401
FEF5
F2F1
0CF6
F00B
000D
0E07
0A11
EC08
0EF7
DDEF
F413
F503
0DFC
0403
0405
02F9
03FC
FF01
0605
0802
FE02
0407
F806
05FE
03FB
0003
0007
0500
FF00
FF00
FDF6
0502
0505
0500
01FD
0403
05FB
0303
FE01
05FC
FE05
FF05
0506
0703
FDFF
FFFD
EEFB
1004
DE11
00F6
F7FB
FFFD
0404
F60B
0BF4
06FB
08DF
33FA
C4F4
0F00
F74F
0213
0BFD
F201
01F1
FC03
02EC
00E4
FEF9
EDF9
FFFA
26FD
F8ED
F6F9
E4F7
F601
00BD
FC05
E805
F20C
FDF2
1C04
FAFE
02EC
C202
E3F8
F901
F3F1
F904
3B0C
EBF3
FF06
EAAB
FBFF
F10C
EFFE
10FF
F3EC
FF23
0015
001B
F0F2
F3EA
EAF6
EDF6
F314
11C7
F200
0600
150A
F504
FA04
F704
E7F3
FF02
FD00
0B07
E813
F9EE
0AF6
0AD0
2EFE
CDCD
0307
1336
FCD9
1802
E004
04EF
ED06
0812
FB06
EA08
FD0A
FBF9
1020
0F0D
F211
F2D3
F7FB
FE10
EE04
0BFE
06F9
1B01
FE30
0B04
05F6
F7F8
F3F2
1712
0A07
03FE
D805
E703
01EA
F83E
0105
F3FF
F2F6
02FF
04DA
0F1C
FB20
F708
FCFD
10FD
18F1
0510
E9DC
04F1
F901
EFF2
FAF6
FDF9
0000
0501
FD05
00F8
02FD
FB00
00F9
FCFE
FB02
FD04
FD01
07F7
02FD
FA14
02FE
FAF4
FDF6
FE01
FE03
FFFF
00FA
F504
F4FA
FEFB
0C03
01F3
FAF2
0305
FA05
FA01
F2FE
01F7
FEFB
0407
F602
F7FB
00FB
0D04
FDED
F4FC
FBF3
0106
F102
05F9
0000
0CF9
0006
F9F9
FB03
F1F6
020D
F3FF
070E
FB13
FFFA
0603
FE08
FCFE
0500
FEFA
FA04
FBE8
08F1
FAF7
F8FB
09F0
14F8
0D0F
03FF
07FB
FEF3
CA12
FF01
F9FB
E2E9
05E7
F7D7
ECC8
0B13
0002
210B
FF0C
EE10
ECF2
0C04
FCCC
FA0E
000B
1C15
0A08
1E0F
FE1E
0101
0633
0903
0704
04F6
FFF7
0206
0402
1006
010C
0909
F904
FE07
02F2
0D00
FB03
0705
0509
00F8
0EF5
06FD
0607
0B0E
0003
F202
FD05
0607
FEF9
F8FB
0502
05FF
08FA
0806
FFFB
FBFD
F7FE
030C
ED1B
FEFF
F8FC
0502
0102
F8FE
03F7
09FD
F5E6
2104
E6F7
0508
0718
F909
FF03
0005
FEF5
0C00
00F6
FCFA
0212
0305
06FF
F9FB
FCFA
FB01
00F6
F7FB
E6E7
FBF4
1B02
0EE9
0E16
DEF1
0509
0207
060A
ED07
130A
FDFD
1511
CE02
E40B
1401
EB34
060E
FFF7
F1FE
0AF2
F50A
04F4
1806
FAF9
E6F3
00F3
08CD
E6F5
08D9
EEE1
0402
0702
0602
0701
00FB
01F5
FF02
0804
04FD
FC03
0506
F903
0409
05FA
FC03
FF05
0304
01F8
0800
01F3
00FE
0403
0803
03FF
FC01
03F9
0807
0308
FFFA
0302
0803
0108
08FE
F8FF
F6FD
FFF9
F4E8
E6EF
06FF
EEFE
0AFE
0609
04F9
070B
F3E2
01F9
FAE4
F1EE
0BF1
0BDC
DAFD
0C00
04F9
F6F5
F4F9
FF0A
FB09
02F4
F4F3
F805
18F6
02E0
F301
05F6
00FD
0AD5
00F8
E2FC
0906
FC0A
07F1
05FF
010B
EC06
EC0A
EDEF
0502
041B
2D08
1CF1
0A07
E33E
140A
FCFA
DC03
FF0B
0113
F1EE
0CD4
0303
E5FF
FCF5
0600
F003
F60C
EEE7
04FE
0F26
F5F9
FE09
F800
FEFF
0EFE
00F5
06F9
07FB
00F4
FFEF
07FB
ED12
DE00
0E0A
ECFF
0AE9
FE08
F605
0FFF
F60B
14E5
0CFD
0001
0726
09F3
FD06
E5FD
07EC
0406
06F1
FA01
0EFA
FDF4
EBFF
0709
1219
1AFE
FEF8
FE03
01F8
FBF9
FDF9
04F5
02FA
2704
FBFC
01F3
03DC
F712
FDFA
DF02
04FF
FAFD
F20C
1102
0419
02FB
0D05
ECFE
06EA
F107
F608
FE07
FAD4
F7FA
FEF8
14F6
0608
F70F
0C07
FE06
0D06
00FF
0B0D
1504
01FE
D0F8
1410
FCF0
F553
0E1D
FCF6
2305
F901
0207
00F6
07FC
FCF7
FDFF
1615
1D12
0305
06F0
F0F2
F308
06F7
0809
ED00
F716
EAEA
09FA
0EFC
09FD
F3EA
F913
0EED
0B04
01E2
35FE
0FF0
0EFC
F552
0C0A
FEFF
E2FE
FFF0
FCF9
0114
E2EC
130A
0504
EF13
0EF2
09FC
FA0E
E2D4
0304
1112
0000
0000
0000
0000
0000
0000
0000
0000
0000
0000
0000
0000
0000
0000
0000
0000
0000
0000
0000
0000
0000
0000
0000
0000
0000
0000
0000
0000
0000
0000
0000
0000
0000
0000
0000
0000
0000
0000
0000
0000
0000
0000
0000
0000
0000
0000
0000
0000
0000
0000
0000
0000
0000
0000
0000
0000
0000
0000
0000
0000
0000
0000
0000
0000
0000
0000
0000
0000
0000
0000
0000
0000
0000
0000
0000
0000
0000
0000
0000
0000
0000
0000
0000
0000
0000
0000
0000
0000
0000
0000
0000
0000
0000
0000
0000
0000
0000
0000
0000
0000
0000
0000
0000
0000
0000
0000
0000
0000
0000
0000
0000
0000
0000
0000
0000
0000
0000
0000
0000
0000
0000
0000
0000
0000
0000
0000
0000
0000
0000
0000
0000
0000
0000
0000
0000
0000
0000
0000
0000
0000
0000
0000
0000
0000
0000
0000
0000
0000
0000
0000
0000
0000
0000
0000
0000
0000
0000
0000
0000
0000
0000
0000
0000
0000
0000
0000
0000
0000
0000
0000
0000
0000
0000
0000
0000
0000
0000
0000
0000
0000
0000
0000
0000
0000
0000
0000
0000
0000
0000
0000
0000
0000
0000
0000
0000
0000
0000
0000
0000
0000
0000
0000
0000
0000
0000
0000
0000
0000
0000
0000
0000
0000
0000
0000
0000
0000
0000
0000
0000
0000
0000
0000
0000
0000
0000
0000
0000
0000
0000
0000
0000
0000
0000
0000
0000
0000
0000
0000
0000
0000
0000
0000
0000
0000
0000
0000
0000
0000
0000
0000
0000
0000
0000
0000
0000
0000
0000
0000
0000
0000
0000
0000
0000
0000
0000
0000
0000
0000
0000
0000
0000
0000
0000
0000
0000
0000
0000
0000
0000
0000
0000
0000
0000
0000
0000
0000
0000
0000
0000
0000
0000
0000
0000
0000
0000
0000
0000
0000
0000
0000
0000
0000
0000
0000
0000
0000
0000
0000
0000
0000
0000
0000
0000
0000
0000
0000
0000
0000
0000
0000
0000
0000
0000
0000
0000
0000
0000
0000
0000
0000
0000
0000
0000
0000
0000
0000
0000
0000
0000
0000
0000
0000
0000
0000
0000
0000
0000
0000
0000
0000
0000
0000
0000
0000
0000
0000
0000
0000
0000
0000
0000
0000
0000
0000
0000
0000
0000
0000
0000
0000
0000
0000
0000
0000
0000
0000
0000
0000
0000
0000
0000
0000
0000
0000
0000
0000
0000
0000
0000
0000
0000
0000
0000
0000
0000
0000
0000
0000
0000
0000
0000
0000
0000
0000
0000
0000
0000
0000
0000
0000
0000
0000
0000
0000
0000
0000
0000
0000
0000
0000
0000
0000
0000
0000
0000
0000
0000
0000
0000
0000
0000
0000
0000
0000
0000
0000
0000
0000
0000
0000
0000
0000
0000
0000
0000
0000
0000
0000
0000
0000
0000
0000
0000
0000
0000
0000
0000
0000
0000
0000
0000
0000
0000
0000
0000
0000
0000
0000
0000
0000
0000
0000
0000
0000
0000
0000
0000
0000
0000
0000
0000
0000
0000
0000
0000
0000
0000
0000
0000
0000
0000
0000
0000
0000
0000
0000
0000
0000
0000
0000
0000
0000
0000
0000
0000
0000
0000
0000
0000
0000
0000
0000
0000
0000
0000
0000
0000
0000
0000
0000
0000
0000
0000
0000
0000
0000
0000
0000
0000
0000
0000
0000
0000
0000
0000
0000
0000
0000
0000
0000
0000
0000
0000
0000
0000
0000
0000
0000
0000
0000
0000
0000
0000
0000
0000
0000
0000
0000
0000
0000
0000
0000
0000
0000
0000
0000
0000
0000
0000
0000
0000
0000
0000
0000
0000
0000
0000
0000
0000
0000
0000
0000
0000
0000
0000
0000
0000
0000
0000
0000
0000
0000
0000
0000
0000
0000
0000
0000
0000
0000
0000
0000
0000
0000
0000
0000
0000
0000
0000
0000
0000
0000
0000
0000
0000
0000
0000
0000
0000
0000
0000
0000
0000
0000
0000
0000
0000
0000
0000
0000
0000
0000
0000
0000
0000
0000
0000
0000
0000
0000
0000
0000
0000
0000
0000
0000
0000
0000
0000
0000
0000
0000
0000
0000
0000
0000
0000
0000
0000
0000
0000
0000
0000
0000
0000
0000
0000
0000
0000
0000
0000
0000
0000
0000
0000
0000
0000
0000
0000
0000
0000
0000
0000
0000
0000
0000
0000
0000
0000
0000
0000
0000
0000
0000
0000
0000
0000
0000
0000
0000
0000
0000
0000
0000
0000
0000
0000
0000
0000
0000
0000
0000
0000
0000
0000
0000
0000
0000
0000
0000
0000
0000
0000
0000
0000
0000
0000
0000
0000
0000
0000
0000
0000
0000
0000
0000
0000
0000
0000
0000
0000
0000
0000
0000
0000
0000
0000
0000
0000
0000
0000
0000
0000
0000
0000
0000
0000
0000
0000
0000
0000
0000
0000
0000
0000
0000
0000
0000
0000
0000
0000
0000
0000
0000
0000
0000
0000
0000
0000
0000
0000
0000
0000
0000
0000
0000
0000
0000
0000
0000
0000
0000
0000
0000
0000
0000
0000
0000
0000
0000
0000
0000
0000
0000
0000
0000
0000
0000
0000
0000
0000
0000
0000
0000
0000
0000
0000
0000
0000
0000
0000
0000
0000
0000
0000
0000
0000
0000
0000
0000
0000
0000
0000
0000
0000
0000
0000
0000
0000
0000
0000
0000
0000
0000
0000
0000
0000
0000
0000
0000
0000
0000
0000
0000
0000
0000
0000
0000
0000
0000
0000
0000
0000
0000
0000
0000
0000
0000
0000
0000
0000
0000
0000
0000
0000
0000
0000
0000
0000
0000
0000
0000
0000
0000
0000
0000
0000
0000
0000
0000
0000
0000
0000
0000
0000
0000
0000
0000
0000
0000
0000
0000
0000
0000
0000
0000
0000
0000
0000
0000
0000
0000
0000
0000
0000
0000
0000
0000
0000
0000
0000
0000
0000
0000
0000
0000
0000
0000
0000
0000
0000
0000
0000
0000
0000
0000
0000
0000
0000
0000
0000
0000
0000
0000
0000
0000
0000
0000
0000
0000
0000
0000
0000
0000
0000
0000
0000
0000
0000
0000
0000
0000
0000
0000
0000
0000
0000
0000
0000
0000
0000
0000
0000
0000
0000
0000
0000
0000
0000
0000
0000
0000
0000
0000
0000
0000
0000
0000
0000
0000
0000
0000
0000
0000
0000
0000
0000
0000
0000
0000
0000
0000
0000
0000
0000
0000
0000
0000
0000
0000
0000
0000
0000
0000
0000
0000
0000
0000
0000
0000
0000
0000
0000
0000
0000
0000
0000
0000
0000
0000
0000
0000
0000
0000
0000
0000
0000
0000
0000
0000
0000
0000
0000
0000
0000
0000
0000
0000
0000
0000
0000
0000
0000
0000
0000
0000
0000
0000
0000
0000
0000
0000
0000
0000
0000
0000
0000
0000
0000
0000
0000
0000
0000
0000
0000
0000
0000
0000
0000
0000
0000
0000
0000
0000
0000
0000
0000
0000
0000
0000
0000
0000
0000
0000
0000
0000
0000
0000
0000
0000
0000
0000
0000
0000
0000
0000
0000
0000
0000
0000
0000
0000
0000
0000
0000
0000
0000
0000
0000
0000
0000
0000
0000
0000
0000
0000
0000
0000
0000
0000
0000
0000
0000
0000
0000
0000
0000
0000
0000
0000
0000
0000
0000
0000
0000
0000
0000
0000
0000
0000
0000
0000
0000
0000
0000
0000
0000
0000
0000
0000
0000
0000
0000
0000
0000
0000
0000
0000
0000
0000
0000
0000
0000
0000
0000
0000
0000
0000
0000
0000
0000
0000
0000
0000
0000
0000
0000
0000
0000
0000
0000
0000
0000
0000
0000
0000
0000
0000
0000
0000
0000
0000
0000
0000
0000
0000
0000
0000
0000
0000
0000
0000
0000
0000
0000
0000
0000
0000
0000
0000
0000
0000
0000
0000
0000
0000
0000
0000
0000
0000
0000
0000
0000
0000
0000
0000
0000
0000
0000
0000
0000
0000
0000
0000
0000
0000
0000
0000
0000
0000
0000
0000
0000
0000
0000
0000
0000
0000
0000
0000
0000
0000
0000
0000
0000
0000
0000
0000
0000
0000
0000
0000
0000
0000
0000
0000
0000
0000
0000
0000
0000
0000
0000
0000
0000
0000
0000
0000
0000
0000
0000
0000
0000
0000
0000
0000
0000
0000
0000
0000
0000
0000
0000
0000
0000
0000
0000
0000
0000
0000
0000
0000
0000
0000
0000
0000
0000
0000
0000
0000
0000
0000
0000
0000
0000
0000
0000
0000
0000
0000
0000
0000
0000
0000
0000
0000
0000
0000
0000
0000
0000
0000
0000
0000
0000
0000
0000
0000
0000
0000
0000
0000
0000
0000
0000
0000
0000
0000
0000
0000
0000
0000
0000
0000
0000
0000
0000
0000
0000
0000
0000
0000
0000
0000
0000
0000
0000
0000
0000
0000
0000
0000
0000
0000
0000
0000
0000
0000
0000
0000
0000
0000
0000
0000
0000
0000
0000
0000
0000
0000
0000
0000
0000
0000
0000
0000
0000
0000
0000
0000
0000
0000
0000
0000
0000
0000
0000
0000
0000
0000
0000
0000
0000
0000
0000
0000
0000
0000
0000
0000
0000
0000
0000
0000
0000
0000
0000
0000
0000
0000
0000
0000
0000
0000
0000
0000
0000
0000
0000
0000
0000
0000
0000
0000
0000
0000
0000
0000
0000
0000
0000
0000
0000
0000
0000
0000
0000
0000
0000
0000
0000
0000
0000
0000
0000
0000
0000
0000
0000
0000
0000
0000
0000
0000
0000
0000
0000
0000
0000
0000
0000
0000
0000
0000
0000
0000
0000
0000
0000
0000
0000
0000
0000
0000
0000
0000
0000
0000
0000
0000
0000
0000
0000
0000
0000
0000
0000
0000
0000
0000
0000
0000
0000
0000
0000
0000
0000
0000
0000
0000
0000
0000
0000
0000
0000
0000
0000
0000
0000
0000
0000
0000
0000
0000
0000
0000
0000
0000
0000
0000
0000
0000
0000
0000
0000
0000
0000
0000
0000
0000
0000
0000
0000
0000
0000
0000
0000
0000
0000
0000
0000
0000
0000
0000
0000
0000
0000
0000
0000
0000
0000
0000
0000
0000
0000
0000
0000
0000
0000
0000
0000
0000
0000
0000
0000
0000
0000
0000
0000
0000
0000
0000
0000
0000
0000
0000
0000
0000
0000
0000
0000
0000
0000
0000
0000
0000
0000
0000
0000
0000
0000
0000
0000
0000
0000
0000
0000
0000
0000
0000
0000
0000
0000
0000
0000
0000
0000
0000
0000
0000
0000
0000
0000
0000
0000
0000
0000
0000
0000
0000
0000
0000
0000
0000
0000
0000
0000
0000
0000
0000
0000
0000
0000
0000
0000
0000
0000
0000
0000
0000
0000
0000
0000
0000
0000
0000
0000
0000
0000
0000
0000
0000
0000
0000
0000
0000
0000
0000
0000
0000
0000
0000
0000
0000
0000
0000
0000
0000
0000
0000
0000
0000
0000
0000
0000
0000
0000
0000
0000
0000
0000
0000
0000
0000
0000
0000
0000
0000
0000
0000
0000
0000
0000
0000
0000
0000
0000
0000
0000
0000
0000
0000
0000
0000
0000
0000
0000
0000
0000
0000
0000
0000
0000
0000
0000
0000
0000
0000
0000
0000
0000
0000
0000
0000
0000
0000
0000
0000
0000
0000
0000
0000
0000
0000
0000
0000
0000
0000
0000
0000
0000
0000
0000
0000
0000
0000
0000
0000
0000
0000
0000
0000
0000
0000
0000
0000
0000
0000
0000
0000
0000
0000
0000
0000
0000
0000
0000
0000
0000
0000
0000
0000
0000
0000
0000
0000
0000
0000
0000
0000
0000
0000
0000
0000
0000
0000
0000
0000
0000
0000
0000
0000
0000
0000
0000
0000
0000
0000
0000
0000
0000
0000
0000
0000
0000
0000
0000
0000
0000
0000
0000
0000
0000
0000
0000
0000
0000
0000
0000
0000
0000
0000
0000
0000
0000
0000
0000
0000
0000
0000
0000
0000
0000
0000
0000
0000
0000
0000
0000
0000
0000
0000
0000
0000
0000
0000
0000
0000
0000
0000
0000
0000
0000
0000
0000
0000
0000
0000
0000
0000
0000
0000
0000
0000
0000
0000
0000
0000
0000
0000
0000
0000
0000
0000
0000
0000
0000
0000
0000
0000
0000
0000
0000
0000
0000
0000
0000
0000
0000
0000
0000
0000
0000
0000
0000
0000
0000
0000
0000
0000
0000
0000
0000
0000
0000
0000
0000
0000
0000
0000
0000
0000
0000
0000
0000
0000
0000
0000
0000
0000
0000
0000
0000
0000
0000
0000
0000
0000
0000
0000
0000
0000
0000
0000
0000
0000
0000
0000
0000
0000
0000
0000
0000
0000
0000
0000
0000
0000
0000
0000
0000
0000
0000
0000
0000
0000
0000
0000
0000
0000
0000
0000
0000
0000
0000
0000
0000
0000
0000
0000
0000
0000
0000
0000
0000
0000
0000
0000
0000
0000
0000
0000
0000
0000
0000
0000
0000
0000
0000
0000
0000
0000
0000
0000
0000
0000
0000
0000
0000
0000
0000
0000
0000
0000
0000
0000
0000
0000
0000
0000
0000
0000
0000
0000
0000
0000
0000
0000
0000
0000
0000
0000
0000
0000
0000
0000
0000
0000
0000
0000
0000
0000
0000
0000
0000
0000
0000
0000
0000
0000
0000
0000
0000
0000
0000
0000
0000
0000
0000
0000
0000
0000
0000
0000
0000
0000
0000
0000
0000
0000
0000
0000
0000
0000
0000
0000
0000
0000
0000
0000
0000
0000
0000
0000
0000
0000
0000
0000
0000
0000
0000
0000
0000
0000
0000
0000
0000
0000
0000
0000
0000
0000
0000
0000
0000
0000
0000
0000
0000
0000
0000
0000
0000
0000
0000
0000
0000
0000
0000
0000
0000
0000
0000
0000
0000
0000
0000
0000
0000
0000
0000
0000
0000
0000
0000
0000
0000
0000
0000
0000
0000
0000
0000
0000
0000
0000
0000
0000
0000
0000
0000
0000
0000
0000
0000
0000
0000
0000
0000
0000
0000
0000
0000
0000
0000
0000
0000
0000
0000
0000
0000
0000
0000
0000
0000
0000
0000
0000
0000
0000
0000
0000
0000
0000
0000
0000
0000
0000
0000
0000
0000
0000
0000
0000
0000
0000
0000
0000
0000
0000
0000
0000
0000
0000
0000
0000
0000
0000
0000
0000
0000
0000
0000
0000
0000
0000
0000
0000
0000
0000
0000
0000
0000
0000
0000
0000
0000
0000
0000
0000
0000
0000
0000
0000
0000
0000
0BE9
06CF
F90D
1B08
10FB
FBC3
FCD7
BF17
980A
F815
02FA
21DC
FEEF
CE11
F9FA
18F9
083B
FCD3
17FF
E9C0
DCF6
FEE9
DE17
0010
D0D8
2905
F7FA
A0F9
FCD6
F3D2
E2F8
D105
0CEB
00FA
F7CF
EE15
F90C
F9FB
EDFC
35FE
33FD
EDFB
FA15
0000
EB1B
FAF7
FA08
E2FA
F202
0831
09E1
12E4
0AFF
E2F8
C0F0
F5FD
FAF4
F4DF
B4F1
25F8
FEF8
E707
0CF2
05F5
F5D6
EECF
EC04
C804
E636
F100
D10D
0BED
E6D8
08ED
F715
4503
F9FA
F215
D40D
ECE3
EA0D
FC1E
EEF5
FB06
0DE1
1A08
0A0E
81EA
E8F8
F80E
A7CA
F812
09F0
FBF6
EEE5
F1F7
2205
05FF
E2FC
0B16
12FC
E5D3
11E1
01F3
E616
EB06
FC14
F0E3
F6EC
E8FB
F508
2D0D
2E09
FEE7
16E2
01FA
DE01
EFDD
D6EB
F71E
FCFF
ED16
DD0F
FFE2
E2E3
E6F7
DCE6
0605
F10B
DEFD
18F7
CAF6
03E6
25ED
080E
C621
BAE9
16F6
EB10
D30A
1A00
2BF2
0926
05F0
16F1
16F3
F6FE
F924
19E4
17F3
16EF
F6F2
D909
19F4
E714
16EF
DF11
0DEA
FB03
FEF7
15FF
2A0D
0BE3
1220
FF39
F5D5
12F4
F0DD
A033
E72B
230B
17DF
D8CE
1304
C8E4
0E0D
1804
DB05
ECD8
E6D7
EDD4
FD28
0BD8
F6FD
C1C4
E000
1BF8
C9F0
2B02
2B05
CFFD
E913
1BE1
EB17
0F0D
16E5
0CE7
0817
FAE0
E508
BCE4
0CF4
06D2
1D27
2E17
1418
FA21
0701
05E2
1CD6
02DD
3A04
0DF3
0F18
F302
D903
EB15
1103
CFEA
E0F3
05E9
23DB
FEE1
2400
0EE3
F0FE
10EA
030D
1BF5
FF1C
EBD4
E606
E3E6
1A05
FC08
F52D
2D01
FB21
1106
0219
04F8
05EE
FA05
04ED
06F5
EBF4
D3E9
1026
F81C
0822
CCE2
0D02
FAFB
F00F
09DD
4F00
F505
02FC
CBF0
0EFC
1111
E3E4
FBF0
0AD0
F601
E0E2
FC0B
F2F6
03ED
E302
D9EE
F725
F80E
F7BF
08F9
FA01
E1F3
D1DD
05FC
EF29
20FA
C707
EDFA
E0FD
E5D6
0019
06DD
F910
030C
ECF6
F9DD
E8E4
F604
1106
EBD4
0DEF
1FF2
09DB
0F12
F1EB
EDF6
FAF8
062B
EEFE
FEE6
1720
02E8
FADA
010D
E0F0
D6FC
E301
25F4
0CF5
BBD8
0EFE
15E3
2EF5
26ED
1FF5
120A
F30C
05EF
0D05
EA04
2B0D
FC04
21FE
E915
0801
F6FB
05E0
F10B
2A07
1BD3
D71F
CDF1
D6F7
D1E2
1EC7
F3E9
D7E1
E122
151F
EFF0
F3FB
DB24
0AEF
38D7
2123
0315
0402
F003
C625
F013
EBC8
ECED
F407
EA26
EE19
FC00
03E8
F8DA
F9FC
110E
0EFE
17FD
F3F7
06E0
F1FC
11F6
F2E5
1106
0CE8
0908
EF09
2AF5
0801
B609
1305
DC0A
2016
0A07
02FA
F2F9
D60E
F30F
C803
E814
EF03
D2F7
07F2
0BD5
FEFD
11DC
24ED
0D0F
02E8
F6DE
D602
CAF8
0F06
E107
00F0
0E0F
1E01
EFFF
EA07
0A1F
150C
A2EE
CDEA
12F4
E3FA
14FF
DE07
191E
0AE6
FAE1
0512
21FB
17EE
0BC9
C4E9
D3FD
0AF6
EF02
FCE2
D4F5
13F4
F4F2
0315
F624
F1D4
03E3
08F1
0DFA
D7E5
E2F1
0FEB
D1F1
0C1F
FDF5
D945
0AD8
FFF7
F9F9
FAFA
29E6
05E4
3023
FEE8
07F8
FF01
F9F4
0AFE
CA0A
080B
F707
10E1
E3F1
00F6
070A
2D08
1D11
21CA
03F0
0135
1CE7
FEEB
EDBD
F715
D204
101D
ECEB
15EC
D2F8
EBEF
C0F7
0708
1102
EBFC
CD22
F805
FEFD
0C17
0C08
11F9
D5F4
19E1
13EE
0A11
F315
172C
0ED4
2A23
160E
0EF4
0BCE
120B
FCC5
01FC
022F
F10A
F8FB
F30B
DC1D
1819
FFFF
EAE7
1307
32E6
1CF9
FBF6
23D0
EF08
0003
02FA
EEF3
1DFB
0307
F61D
FE03
28F5
1B07
00CE
32EA
E31E
D618
0DF5
0504
F4E2
22FA
DFFE
F1E9
DCFE
ED25
0001
D40A
0C3B
1001
141F
0408
F30D
04EE
1ED8
01DE
18ED
0DFC
0AF4
142C
FDDC
BE1A
E5F7
0EFA
FBFA
FBA9
E1F1
E4FA
23F8
14FC
EDFE
09E3
E9E9
F2EF
F3E4
FE07
F409
F6C3
D31D
1623
F6E1
F813
0118
1CF3
FB1B
EAFA
D20F
CB16
15FA
0821
F818
28E3
281D
DAE1
FDF2
05D1
2DEC
2BE3
1BFE
EDEE
0BCC
D4C6
1EF5
F719
FE04
30D4
39B9
E401
B821
06FB
E31E
CF16
16CA
190A
191A
E617
0DFD
03C1
0EFE
E11F
F60C
0931
0DCB
1815
11F2
FC1D
FAFA
EBE5
FC40
DADD
EEDE
C803
FCB7
09FF
F0D8
EFF9
B925
E5E4
E5E7
23F3
E0A9
BEBA
0C08
0C2A
2200
1615
FA12
0CF3
BF26
DBF7
F816
FFD8
EF0A
C607
EA01
FE1E
15D4
1A0E
06FF
F2F0
FDED
FF1F
F103
0BFD
F2D3
ECD9
F80A
DB08
F2F4
F506
F316
F806
D7F3
11E9
12F1
FC06
01FA
0108
060B
EA1B
D60A
F303
F3DD
0417
EEF4
13F0
0C17
18D8
081C
D2FB
1805
E3ED
00EB
1A04
F11F
FE01
FBEF
E5E6
1D1A
FFF9
0C03
D1EA
DBE2
EA10
DF09
E2F1
FB07
E61D
1E0E
DAC1
0FF8
EAD9
19D9
D8D9
060B
CDC6
EE26
D909
E203
310B
F6E8
02FA
E60A
D5F9
C41D
0501
12C7
CD16
F49D
EC13
E9F0
E8EA
0323
0B0C
FFFD
35AC
EEF7
F61E
04F8
F005
E602
060D
E218
EE16
D200
130C
0712
D0F6
0313
F719
07C3
11F1
ECC1
F20D
F411
07FD
0DE6
0104
021E
23FD
EFF0
C211
FCDC
DAD6
06BA
E6FE
E210
E805
0D09
F704
F7F0
EF0D
F806
05CC
251B
0026
EBFA
0BFE
19FB
FCDB
07FC
FE0E
03E9
FF17
16D8
E70D
D704
0CF3
0709
CBD9
D0DB
03FA
150C
0FF7
DDF2
FDE9
CCFB
E7EF
FFF9
1002
0CF3
F4E3
BFF3
0714
EE29
00FF
E905
110A
E814
0700
0BED
F500
DF22
1728
E706
0500
14F7
FA13
F912
0509
18EC
ECFB
E1EC
4ADE
0E1D
E1DA
1C17
02E9
FAD8
08E0
E5D7
111B
9B00
ECE4
00F4
DFF2
5130
F403
F0DC
DCE1
0D0D
EAF2
E406
BC0E
F3F5
F6EC
2520
16EE
FBE5
1D0D
F4DE
F5E9
F008
D114
EF0C
F0F5
DDF7
0BFF
EA1C
F3F4
01EB
CE1C
FBFE
160E
BDFC
00F6
F114
F0EC
06FD
09F2
EEE3
24E8
12C8
F7E1
D1FB
23E0
0AEF
0429
F812
0916
2A0B
25C3
F3D9
0A1D
E0EF
FD01
FEFF
080F
0332
F4E4
F2F9
FE11
0AFD
FD22
B618
F6C5
DFF4
234F
0914
DFF3
0713
0002
EBED
1EDC
2ADC
ECDD
E3FB
FDFF
F1F1
ECFE
0A10
EBE8
0804
25FC
F618
E914
F611
070C
06EA
E11A
DCCE
FAE0
F423
F721
E8EE
09FF
1DF2
10F5
BDFC
F9F7
1D0E
D4E6
FEED
F110
F7FC
EDDC
E30C
CC0E
F11F
D9D2
F1E0
E21E
F306
FB0D
F7FF
ECEF
F1F9
F3EE
E4F9
1214
FCFE
02F2
06A3
F6F9
131E
FDF9
00CB
FD07
26E3
FCE2
FBE9
F804
1100
E0FB
D7EF
0A14
0908
4B05
E1D7
1305
CD06
07F1
D8E3
0009
FEEA
FCFA
F40A
F0D9
13E8
07EA
CE0A
DA17
FF07
F1F1
EC15
EE00
F701
FCED
110D
1E01
EA05
F6F3
E8FB
0403
02F8
CBDC
E514
EFF3
051B
07E9
1ACD
1CE8
FF00
34F0
2501
2317
E5D3
E603
2523
1012
0D19
00FD
1434
05EB
FEE7
1F0D
FD17
DCF6
F9DF
0BE7
07F7
FBB6
EE04
E420
D1F8
1FE7
17EA
D106
FC19
EB10
220F
ED00
F329
06F3
1AFA
05DE
090A
F31C
FA18
1011
18F3
2611
F923
1107
1503
FEF4
ED00
ECFF
FC00
FA11
EDF6
FD20
F412
0F3E
0127
FA08
F2F1
0DF6
0626
15F7
011D
1208
EFFD
0302
FA09
E9F3
FE0F
01E9
1812
D6F2
E00E
E402
2BDD
1401
D8EA
F71A
18C7
D5E6
D8CB
F4D6
DDFB
EF0A
D3ED
D705
D7F8
FA11
FC0E
EDF1
E1DF
FFF6
041C
FF17
1502
EEBB
D0EC
05EC
0211
00ED
F3F6
1C05
E2E9
07F0
0A11
E9EB
BB26
EBDE
0BD3
F2F4
FB1C
2234
0F21
021C
F417
02FD
2AF6
1E11
14F8
2B0A
0302
F40E
ED02
081B
1005
DDDD
111D
0F0A
F618
F9E4
23FA
A44D
E10A
260A
E8F8
C505
0114
F802
15FE
1207
17C4
D70C
C5E0
171E
DFE1
FFF2
B6CF
DB0C
EA13
E611
1D04
E9F9
1AF4
0309
D716
3A24
0CFD
DAEF
D206
1601
E2F2
DBF6
ECE0
0EFB
1904
07D9
170C
F718
0012
1E16
13F8
1517
FB13
1000
0708
F2FA
F4FF
F1FD
FE02
0008
FAF9
F725
ED1B
103E
FE1D
F800
F3F7
13F8
F41B
1907
031A
170A
F4F9
0B00
0402
E3E9
DC0B
011C
E9C5
DBE9
0602
D90B
DD0D
F0E2
15EF
E9EF
100F
370D
2B18
02FC
E7E8
E3F3
0207
FE37
FBDC
0726
2AF7
FA04
111B
F70C
2511
070F
210F
1915
2FFC
17FD
FC05
0DF3
1E01
FDDA
0B07
E913
F80A
1814
19FC
2418
FD15
1303
140A
0CEF
FEFF
E6FF
02F6
F90E
F2EF
0020
EE14
1537
0E21
FD0D
FB04
11FA
031F
1412
FF18
1410
0300
0306
F517
D329
F50E
02EA
F3FB
DF0F
F813
EA19
39E2
1F06
F3E2
F70D
E9CF
E804
FAEA
10EA
A500
D114
E00D
E5F9
00EB
EB0E
DF04
E9F5
05EA
EEF2
06FD
E021
1C08
08DF
F301
1105
0CF6
D7E4
04FF
1311
E8E1
D50B
FC14
EF19
F5FA
2AEC
0CE4
E50F
1902
29FF
EF06
04E9
E502
DD0E
05EE
0146
FE07
0A2A
F008
00F8
F80C
2024
FB20
F300
F625
1116
0F00
0CF1
F900
D81C
F0F8
03FB
01E5
DB07
1900
EDFD
28F1
2BEE
08E4
F2FB
DEF8
FA02
02F2
FEF9
B4ED
D2FD
DF01
EE0B
FBF8
EA1B
EC07
F200
F2EE
FA0E
0A05
E3F7
1204
FEE2
ECEB
0C03
FEF2
08FA
1301
04D9
0EF8
EA12
FC15
1D11
0BEE
2615
FA0D
1AFA
0806
07FF
EAF7
F0FE
FDF8
F609
F1FA
FF1F
E91E
1643
0421
F304
0AFC
0EFD
FA15
17F5
F720
1207
F305
00FA
FAF6
F502
0FED
F8EF
02F2
EF1A
F425
0529
1AED
3709
0002
0810
1408
17FD
E505
F9F2
EFF9
ED0D
EFF6
EE2A
F006
1231
FD28
0A06
2101
1D02
021A
0605
0836
2022
0FFB
0311
FE0E
F4F0
20E7
0CD5
1A01
F008
F600
18ED
EBDD
020F
E70C
02FC
0100
E0E1
EFEC
CDF9
19F6
0FFC
E7E2
F523
DF11
FA28
FE11
08DF
DDEB
ECE6
E61B
01E4
D6FA
07F8
E4FF
EAFC
EB02
EF07
F619
F2DB
1104
B4FA
05D9
1300
FBE3
1DF5
EA06
F207
24EB
04FE
1ED1
0003
FAD7
DF17
D0E6
EFEF
B8CB
B804
DA18
00F3
D6DD
F8FD
03EC
0726
F6F2
02E0
24EB
1B1C
DE07
FFF4
3306
D60B
22FD
F4ED
E8DB
0621
B5E0
F426
C40D
07F4
16B1
18EB
C613
FEE9
0BED
F820
B5E9
1A15
B4D1
D710
D406
11CB
2FEB
A9C9
DDEC
0C3A
CFEB
EFC5
10ED
E90B
AF1D
F6F1
1A00
FEE2
02F9
EB16
EC1C
0B16
0EEE
3609
F608
0C0F
110F
1EF7
E4F4
EDFC
EDF7
F615
EAF5
F72D
EB10
142E
0221
0512
0A05
2012
F50C
07FF
0F36
1619
F005
FAFE
F115
E211
F202
EBF3
01F3
DEF9
E8DF
F501
23E2
2AFC
040C
F9E1
D4F2
DD00
FA08
F9EF
CEE6
DAFD
E8FB
E417
F7F8
F517
E302
0B0D
1600
FFF9
1526
ED0B
F50E
09DF
EDF9
FCEB
E806
08FA
0103
FCE6
FD15
EAF7
F7E7
F6F1
01F5
F01E
F324
1AF6
F4F8
EBE9
FBF6
DFFD
0AF8
0FFB
F9F1
EF08
F6FE
E724
F018
1600
EFF9
F4E8
F2FA
2FF3
E8F5
F704
F9F7
EDFC
FD0F
D7F2
EFE1
06F7
E5FD
ECED
0335
F025
37EE
0F20
FB08
FCE8
E7ED
FE02
F5D6
D908
D50C
E9F0
E4FA
E6F5
0E2A
00F0
E703
0EFA
E6F1
0915
CB01
0015
3F20
2500
E108
27ED
15F8
E1EE
E2FB
020D
E1E8
D7E9
FD20
FFF5
0709
15DD
FCEE
E0E9
0805
102D
0F02
D805
B802
F1F8
FD21
121F
0FE7
0F0F
F9F8
F914
F406
072E
1216
D8FC
CDDF
01F6
F100
F522
0CE6
FA0E
18DF
D6F2
F027
F324
EAE2
081B
CFDF
E82D
E913
0DE8
0FB1
E2FF
F2F0
1DDD
03DE
231A
08D8
FAE8
CFB7
E3E5
ED13
FEFE
0B07
BDD0
B8E3
FE48
0626
3CE3
F622
051F
D60F
EEF1
F5F2
E6E4
05E3
FB01
F2F1
F2D0
D808
E6FA
F101
F2C0
F403
FE11
FBED
EE06
0F02
E605
14F3
21D3
F6FE
20CB
01FE
F2FB
FA0F
0428
E2D8
D9D2
E318
FC2B
D505
FE0F
FFDF
E7F4
F9F1
F0C3
F106
CBFD
EE10
FB05
1ACB
0AF2
F407
ECFE
ECEC
E20D
EEF9
DBF8
B2F6
D9FE
F00A
EDFD
0900
0A0B
CE21
15E4
0903
DE1C
F515
E620
D418
27E0
1BF5
03F2
03F3
10FE
FE08
00F6
040A
EEFF
05F4
080F
2AEC
1B1F
F02A
1301
1BEE
F4E8
F8FE
D9FF
1EF4
1E03
F704
EA03
DC17
F407
0524
0B06
F203
FCE4
EEF0
0C0C
290E
1604
FDFB
0109
FD24
07F5
1400
E700
F82E
19F3
FAFB
1109
F6DF
E73E
F71C
0809
D0FA
D5F8
05FC
EA09
0DF8
0D0C
FFE9
FCFB
F911
F81D
FE0C
210F
FA17
EBFA
CBEB
11FF
F4E7
FFFA
E40B
0009
0119
E102
F7E9
D1F9
FDF5
E0F1
0803
FE08
11FD
19EE
02EC
FDF4
F5F2
E308
0519
F3E9
BECF
EBFB
EF23
F304
F300
F31F
F404
F410
1BF6
FDF5
EB23
EA1D
E1F9
15D7
FCFF
17FA
F0E1
0FFB
00EF
0EFA
0F2A
0231
E40C
15ED
3EE7
4D15
EA16
01E1
1CEC
1C03
FDEE
ECFE
25E8
F708
0E0D
ECEB
0103
FB29
07FA
F12A
0EF8
1103
EEFB
0B05
0DFC
FA07
120C
0C0B
0422
0DF7
1AFF
03DC
120A
F813
F912
200E
07F4
060E
F80B
0EF4
F103
03F6
FDF4
F702
02F9
0906
F6F6
FFFD
F41A
0319
0112
091C
FF03
1700
F307
1AFD
F9F3
0A14
FE03
0208
0700
FD0B
E3F2
D2FE
EFDD
E228
FFB4
E774
F405
EEE7
EBE3
1CDE
0A10
EF25
0403
04AD
EA0A
FE0E
E8ED
FCEC
DBC0
FFF0
FBE6
F432
E7F3
17CB
DFF2
D61A
F756
EA0E
06D9
0A0C
FAFA
F1EA
0409
ED14
091B
0BF0
0C23
F3FD
1C03
39F6
F10B
0EEB
14EB
EDEE
F7ED
D2FC
FDFD
25F4
0903
08EA
F267
FDDA
0B00
10F2
E5F5
0AFA
E4F8
F0F7
41EC
000F
D808
1FFA
2505
FEE4
FC0E
F4F1
FA1A
F3FE
04EE
01FB
17DC
100C
DD0B
FDE5
0DE7
EBF4
F8D5
C5F3
EFE8
F7E5
E207
F0D4
E019
ED0F
010E
11EA
F7E9
06F3
D9F6
0811
11D0
0103
0CF9
1EEE
F602
E5C7
F023
D7EE
0101
E100
111C
2100
F9EA
0FCD
E5F0
EFE4
02FE
28FD
15D3
E916
FFD9
F8DB
C519
D811
E50E
ED1F
28D7
EBF7
11FC
12FF
0110
F9EB
239A
0AF0
262A
20CC
09CE
0700
FFF3
2401
F8EE
1E38
C5FE
E71B
0FF4
1ADB
D601
05FE
D708
0610
0EE5
30FD
F716
F0CD
FAEE
1110
0505
E6FE
EB02
070D
8101
3406
E023
FAE1
2B13
DE06
0409
F325
0DFD
131A
FE10
FFE7
F90C
F617
F500
05FF
03ED
E921
0B15
F2F5
1208
23F5
01FE
F3F9
FAF5
0A08
F705
00E9
FDF8
F5DE
FD03
0BFE
0F09
07F6
F7EC
EB08
F3F5
15FC
1A03
0606
F8F9
F213
F506
03F8
F3E7
062F
EC0E
0211
0521
C8FD
11F3
EDF6
FC14
1C14
2B0A
0712
21EE
09F7
150C
18F6
1B08
0FE9
1B15
01DE
F4EF
FBF6
FDFD
0215
F7F8
F5FC
06E3
EA31
00F7
0C02
0301
08F8
FF08
F4F6
F7FE
F800
F7F3
FA1B
F01C
1202
EF00
F6FA
F5FD
F704
02FB
07FA
F7FE
06F6
F917
F908
FF08
F700
0001
0101
F3F8
0604
FE09
02FC
F7F9
04FD
0111
F8F3
FB0F
100B
EB01
02D9
F80B
09FE
FFF9
F0FD
02F1
F500
F20C
FAF9
FE23
0BF6
09F8
1BEB
FBF0
12FF
12E9
29F6
2816
01EE
EB07
EE05
1904
F9FF
E901
E529
0AD1
EF04
FEE9
0318
E30E
1BD7
0004
1458
03F0
EDEF
F7F4
F6E1
FBFB
E31A
E4FB
3615
0CE6
32F1
E1FD
DB00
0A29
F52F
ECEE
FA0E
0105
FFF8
E20A
E103
150F
F9DE
0210
F2EE
15F8
0FFD
EFE0
E2ED
EB18
D80E
EAEA
05F5
F9E9
F42F
F1F0
3D0A
E8FD
F3E9
F6FE
FC1E
FBFC
FC18
F9F1
1D07
08E8
0BFF
FAC8
EA1B
0806
2408
E9F8
EA16
CFE5
04F9
1CE4
FB20
FED1
01EE
F610
0109
FB16
B3BD
FF0E
0FF8
EBEB
09F1
0AEE
3422
F200
09FA
00F2
E40F
09E5
F40F
F612
1B01
F7D7
0BF4
08E4
041B
CE26
EC2B
CEEF
23E4
0601
FFEB
E201
1619
F90C
1E21
F00E
1400
FE11
FA16
FF13
1526
E12D
10F8
1401
F519
E71E
090E
06E7
08FF
2F2C
0EF0
0DF6
030A
0A1B
0DFD
0BFC
0DE8
1F07
0B17
DB20
05EF
E4F1
FDE5
DCF0
0DF1
1CE3
F307
FADF
231A
F500
FEFB
F4EB
0803
CC31
03F4
FA07
F51D
1200
0204
0817
09EA
0404
E6FE
D51D
FE14
F4FB
0E08
0BD8
F6D7
23F5
E11E
0D07
FB06
F1F0
DCE9
E510
F426
EC0E
F612
FA00
FD11
EE0F
080B
EDEA
041C
DF1F
F9CF
E20E
FC01
FFEA
1BEB
11EF
F30F
290D
D4EF
D5EB
E50D
2200
081D
F4D4
FCEB
ECF9
FE42
102D
18EF
D217
F9D6
CD09
FB0A
19FE
DD15
EDFD
0604
EC14
0211
09E6
04EF
0718
08E0
DDFE
E8F5
0302
15E2
0503
F40B
1117
FFED
040C
04F0
060A
1A03
15C0
0FEE
0506
1012
F421
FA09
06EE
F1EA
E108
E414
13FA
D526
F3FE
0BF8
0512
F210
E7D4
FE1C
D90A
DDE6
ECFE
E6FD
E4FB
D7E7
0F00
0618
41E2
1E02
2110
0B1C
3832
2300
1101
FDE7
010F
0130
170E
1406
ED0D
E004
CFD6
2708
FAE6
DC27
03D9
10C1
F109
2109
ECF7
F2E5
C80A
F0F2
F8F3
1E17
F416
E8EA
DFFB
EBF2
04F8
CBF6
FA00
F9EA
13F9
FD26
FA04
F10D
FBF1
080D
FD0F
F811
F706
0EEE
E50C
E419
F5E3
D4F3
F903
0109
F0F9
EDF1
F5F4
03E1
B705
FADF
1E00
0BE9
E0F9
F817
03EA
FED9
F3F7
1807
1515
03D5
17DD
0D08
0E20
0C06
32FB
1F01
C3EB
13F9
151C
F2E3
F6F5
D30F
CA12
F706
0605
F002
F201
0101
FAE5
0BFC
FC21
0505
FCFF
FBFB
0DF5
06FB
19FF
EEF9
021A
18F2
0A0F
0500
0B00
1900
02E9
EA04
F009
0B16
DE16
F502
FCF5
F9F7
FBF2
031C
DB00
01E9
FE06
F2F4
FB2A
07CD
0A10
0AFD
00FB
1208
E100
E909
1400
1B13
F0C4
07E4
0B08
1AF8
21E1
FBE5
F2FF
070C
FBF9
FDFC
E9E7
F7FF
EFF4
07FB
370E
FEFC
0D0D
09F8
F614
1620
21D5
F127
F4FA
070F
13ED
2114
ECE5
FD00
0903
FA0B
180F
06FA
E4F3
4416
01FA
1E01
06F8
E615
170D
0012
FEE3
1608
E7E6
01ED
0E11
E413
0402
ED0D
1017
F3E1
FE1B
1802
F1FF
DEEA
0508
F7E6
F232
1B12
25FE
05E5
D707
F030
F800
F20B
06AB
190F
0820
3634
FB1F
041B
10F3
18FD
FDCF
F901
F10C
F9E3
F602
100D
F105
0105
F10A
04F8
15F2
0511
00E7
DA05
E8EF
1F24
091D
1518
07F8
E70D
CF08
F50D
3105
F218
EC04
2007
FE15
310C
06DC
DDFB
0809
E713
F30E
06FE
E1ED
05FC
E8F5
DC0F
1501
F2E3
1609
F6D1
FD39
F907
E4F4
E6F0
DFCA
E31D
F3D8
E507
FE01
000E
14F6
0A06
1DFC
F8FC
C7FA
FE0B
0616
3C18
0FFE
F8EF
EAED
09F6
E710
1BEF
F0F9
0C02
D807
0D09
2311
E5CF
060D
FC12
BD2E
D602
DCE9
FBDE
E8F3
2BFC
07FE
FE09
010C
02EE
D70F
D00E
0100
EBDE
F30F
06F1
FC00
1FF2
0A1B
13D7
0720
23FB
F92C
CAFC
0B0C
00FC
FCFD
1DEE
FCF3
000F
19F5
BD04
1601
D8FB
16E5
E81E
EDE6
EA1B
E716
F721
03F1
E201
F6F4
0206
23F6
1F10
EFFC
FDFF
02EB
462F
13BB
E908
0204
F410
04EE
EAFE
1EFC
0CFA
D0E6
EE00
2FF8
EAD4
F108
E300
D815
080D
CDFA
F1F8
E609
EC08
07FA
1610
000A
0101
12EE
F6FC
2AF4
0AD8
0AEF
0EFB
FD05
2404
14C8
DBD7
1619
04E7
072C
00CB
31F4
FECE
01DF
2918
0D19
F106
ED2F
FB02
DE0C
E01F
F7D6
0412
0101
0DFE
F806
231D
CBC5
EB07
17FB
240D
100F
1415
FBFB
1D0C
E6F3
2DF9
FCD8
DF06
000A
F201
EDDB
0523
EAF7
E01D
F80D
FF0E
0308
E401
FA40
DDF5
040B
DAFA
D0FC
0AE9
050A
010E
0C09
1602
0B10
0B03
EE06
F013
F000
00F8
F0FF
F9F5
F3F4
25F3
10FF
1BDF
0E07
0400
FB0B
0107
0900
2509
D9FC
13E1
E20B
07DA
FA0C
030C
EF16
F8FC
0D06
DB1D
D2D9
F50E
FA21
EC0F
000B
F5FF
C8F4
F9F4
05EF
09F4
E7FC
EAEF
1E1F
1D02
092B
0414
D315
E7F5
FB0C
04EC
01F6
0013
F4F8
F214
EA12
F0FF
2E3D
DAC0
0ED9
0004
FF09
16F3
F7EA
130B
05F4
100D
250E
F4EC
F9F4
E010
13EF
0E00
0E0C
FC0D
0CF0
FEF2
E608
FFDF
0E0A
F3F2
0F00
FBFE
FE3A
E6E0
0201
0413
E705
00D4
11ED
08EA
F2E8
F202
20FA
E7F3
E5E7
D80F
FDE0
0211
250C
F905
E5FA
FA0C
05E8
E00C
ECFD
F306
1AEE
162F
FA18
DFF4
F004
0508
FD13
04F0
F126
0F23
E2D9
120B
221D
EBF5
170C
E5F7
D1E2
F2CC
EC02
A91D
E0E7
F7D7
EFD6
0432
1707
FDF8
EEFA
FE0D
08F5
221C
E1E8
02FA
F02A
0014
FCF3
1B26
15F7
1FF5
FCEE
09E7
FE10
E7EB
04F3
0F26
20FE
F611
EE1C
E804
1A0F
E2FE
05DC
03F3
EBDD
2302
18FD
FB0D
1014
EBFA
E312
D1F1
0900
1407
EE00
F403
F214
0902
FC10
0CF6
FF25
0EF8
0107
F8FD
DB14
F8D8
0602
0110
0601
F6D7
FD06
D4E6
EE00
11F7
1DED
E0F3
FC1B
0ECA
1206
1E04
E911
F511
0701
FAFE
3100
E40F
04F1
16F2
F00A
041E
16F7
DE04
F5F0
FB2F
0A17
CF0A
FBF2
F8F7
FDDE
1AF5
093C
0BCB
210C
12F9
FF26
1716
04EB
01D1
F8E4
FAF2
F0ED
17F9
F304
F70D
F314
EF11
EA10
14E9
D10E
0E25
E8E8
17D6
FE13
16F5
FD07
2B24
040E
1C15
1506
F603
09F5
03D0
370B
0DBE
0F18
1117
F3D6
FC01
CEF7
15E3
F201
03FC
F2F3
2210
0305
16E1
EF39
F202
09F0
EBC6
0A13
1017
0D10
0A01
230B
F4F2
1003
14FB
F612
0AEC
F7F5
C2E6
E8FA
1601
1C13
EBF0
E610
100A
FE30
0DD1
E3EB
1014
EEEF
DE18
0A0B
FAEF
04BD
EAF4
37E5
1918
1D14
1639
3EC9
D8E8
0B1A
F8ED
04C6
F80D
03FD
0EF0
DA19
1516
021D
31F6
FEE5
01E6
EA0E
09EB
FC0F
2ACD
F1ED
0A08
020B
1AED
0EE6
2218
11F2
0E12
2009
FBD7
E807
E416
04FD
CEE4
2417
18F9
FDE6
1DF9
3505
F5E8
1DEA
14F3
E224
2EFA
F0FD
E8CF
0BE9
070F
2E01
EBF6
EBFD
33E8
EB3B
03B0
070A
0AE1
EDD7
F7ED
FDF8
1509
FB0D
0AFD
F60D
E61A
0B10
0EE7
EB03
0725
FFE8
22E9
0A0E
16F6
E50B
1F29
060B
142C
1803
F8FC
FFF1
F7DD
2E0F
1BB9
1415
111B
F1B8
F900
C2F5
2FF7
00E2
2312
0B0C
08F8
14E9
E604
1CFA
110A
1A0C
1925
3002
D109
E0DF
F3F8
0F11
F1EB
EA17
F209
F627
0402
E2FB
F8DC
E4E8
120D
31FB
01D1
F3F3
16B9
D71B
02F9
0C02
04E3
EFD3
0EE4
EDE4
13FD
0208
0508
F725
F300
1C02
0AF1
EB0E
FE0C
0803
0EF9
F6F2
13FE
F515
070E
E70A
EC0F
F506
FE1B
D7ED
01DF
2316
19C8
1E10
1505
EEF8
F6F9
E6EC
09FD
08FB
1A12
F4E9
0900
1019
17D5
D60F
E513
07FE
D6D1
290E
1B16
1705
F9E7
27FF
E9DE
4B06
0FF9
FA0C
3CE9
F52B
C5DE
E407
1814
140D
F1E9
EB0F
210D
0F1C
F5DF
D606
DDF2
FB05
12FF
1ADB
111B
0630
0410
FC01
F206
0602
F7F6
F900
18F6
1604
F1F2
2906
0219
00EE
1B09
F706
FF03
E006
FBD9
0003
2317
1F1D
08DC
CDFF
2BF7
FE1D
0003
0FF3
19FB
0B04
1805
08EA
0F0A
1213
06E3
E309
E315
2000
E0DF
102A
18FF
05F6
06ED
2E0A
EAEF
22FA
19F3
E617
30F2
F40F
CDE0
F2FB
1B11
1108
EDE5
F102
1F0B
1125
03C9
E50D
10E9
FDEC
07F3
F3F8
10F8
0100
09F3
E906
F018
F10B
1EE9
EE01
F012
13F7
02F8
04EE
13F3
E922
F30C
0509
F819
1200
F710
04EE
FFDC
1E1C
19D2
FCED
FD02
07F1
F205
F8EC
FDF5
04E9
00F3
03F9
0D0A
ED05
010A
ED02
EA0F
E808
1000
F911
EBFE
F3FA
ECF8
04FE
04FC
EA12
F50E
F90D
0706
FB09
0A0C
F4EF
0BEE
0C19
0CF0
EF01
140E
EF04
1506
EFF6
06F4
F7ED
02EA
F001
04F7
1FEF
0203
F219
FDFB
1602
05E8
F404
1727
23F6
2305
F2F8
F501
F106
03F1
FD00
0210
1AEF
DEF5
E8F7
D9E9
3CF9
FFE5
F11D
EFEA
F3D2
DEE3
E7CD
08F0
F2FC
10E6
EFFC
11F0
06F1
11DC
F717
0409
05ED
F2D0
040A
1A13
1A0C
FEF7
1612
F6F4
0D20
0B0C
EF0D
0207
E4FB
D7F2
F8F9
FA04
2C17
E6D8
EF2D
12F4
0317
2ECD
EFE0
F1D5
FDE6
FDF1
E6F2
09F2
1AEB
1ADC
D43E
F2E5
2200
F7E8
0A1A
021A
360E
05F8
0114
E8FC
FD17
0122
F70E
3D07
100B
D7EC
FD12
F7DB
3C22
E3BB
E43F
00ED
F9D8
E9BB
E9F0
FFE9
02E7
04F0
EAEF
1DFD
FA07
0407
E80B
E613
EB0F
16F8
EC09
E90B
01F9
00F0
FBF8
06EC
EE16
F107
F618
000D
0103
0911
FAE4
07F0
2417
19E2
FCFC
0C11
EDF5
F70E
F6EF
F9F8
CC00
1206
F012
1601
FA03
03CB
F8E6
F801
0713
FD25
DDF3
EDE7
F502
2711
0E15
0404
1500
0927
1E12
F509
22EC
0F06
2319
2E18
1A1C
E6B4
F115
C5FA
1815
EF07
1406
E312
FBE6
1833
FA13
1D1C
E20C
F4DE
0617
1216
28F6
FB20
EDF3
17FF
0E12
09F8
F013
01E4
05E2
FE1D
1D09
0306
E3E9
05F1
D5F7
1BFC
01FD
FDE4
FB0A
F102
F905
1B0F
15CC
E8E7
CEEA
D8F9
E10F
F3ED
0015
0405
DCE9
E632
FCF4
FE0D
06E2
D400
F514
F20C
F511
1332
0423
F71C
19FF
D20D
03FC
1B19
F703
FB0B
0ADB
15EE
0223
1108
2B18
FC20
1D06
F6F7
D6F5
1ABF
FBE5
E0C6
FB29
E9EF
F615
EB06
FF06
F40E
EE04
0CFC
0C17
FF2D
E411
F7FD
0628
06FC
071A
EBFA
35F9
DC10
3EFF
3EEC
07FA
E1DF
F3FF
B70B
3014
BB1A
21F4
EDE4
E00C
17D9
FA03
14F2
0A08
0DDF
2006
1104
FEFB
F80F
ECD6
0117
0917
00DE
FCFC
FEC0
0810
E4EE
1EFA
1B06
DB05
E5EB
1AF5
060E
D11A
EEE7
3204
1D09
1B1C
28F9
060A
F701
F60B
02E7
ED29
F911
D103
FEFB
DEFC
FD00
E916
02FC
FD0A
180A
03F2
F3F2
E7FF
0A05
03FA
F7F5
01E7
1C05
160A
FFE1
F6F6
131E
D0F5
F9EC
061A
FA25
1725
1121
0301
0D09
E6FA
27D8
EA09
FEE3
F903
09F2
F40B
0308
0B1D
FE3F
DCE4
F3F8
110D
1914
0C24
0804
1D19
FC14
2EE1
FD02
F10A
DA05
1F28
2C06
FDF0
EC9C
1A19
D00E
2006
E50D
25EC
07E5
0301
ECF1
01E3
F0F4
06FA
FBFA
2CF3
2117
1902
0CF3
EBF9
EC09
EDED
DAF8
0002
0A06
E2FE
F504
E403
F413
EFFA
F317
EBFA
E0E9
DE06
0303
F805
0A00
DB2A
1F06
F002
06ED
0AFF
F9FC
02FF
24EA
0EE0
FDF5
40E2
1300
F60A
FB0E
F1E2
F208
F720
DC0D
08FF
14E9
D40B
10E6
03FC
EC22
E6EA
06E9
0212
F903
C00C
00FB
F7F2
EEE4
FCE2
0EFB
090C
0306
DFFF
12FA
F90B
20FB
F20D
0DF2
FD10
00FE
1E0F
152B
E9F8
E8FD
0033
0FFA
2B00
0409
1BF6
EBF4
0EF1
F0FF
E703
FD17
3711
4411
0601
F1C6
FA18
D1FA
37EF
030B
1BED
FCF1
FF24
06EF
0FEA
0C17
05FB
050D
2002
1A0F
F013
021C
F101
FAF3
09F5
F5FA
FEF3
13F5
ED04
0211
FC04
170E
E805
090B
F5F6
1705
0A12
17F4
F906
00FE
080F
0720
F70B
0AED
060B
07F2
0DF0
0500
FAFD
08F7
0F00
ED1A
0017
1A1B
F4F6
FE00
00FD
E8FE
FB01
09FA
EBF5
FE14
0620
FB07
DAFE
FA08
DDF8
0FFC
000D
05F4
F216
F404
02FF
F911
FEF7
F1FE
EAF9
EADF
FFF6
07E0
0E39
0DEF
1014
04E6
F402
1416
ED02
1C0D
0323
F106
EF26
31DF
E03F
0BDC
F8E3
CA00
BA2A
BD0A
05F8
1027
C301
E4EA
1C07
1708
1425
2DFA
2AE8
ECE8
E526
DA27
F01F
EFF7
EBF6
FC03
FA03
0109
FE04
1A10
1FDD
D30A
0E01
F718
19DC
2422
0004
F714
EC04
C41B
1FE3
2609
FAEC
D5FE
00EE
0FF1
F91D
E5EA
FA03
FE0D
EBF9
03FA
E600
00F8
FC1F
EFEE
ECF0
0E0F
FAF5
0CFA
F90A
FA05
06F4
EB07
0ADE
F6F7
FBEE
0E14
F2F6
E901
F2FB
F331
0CF7
F5F9
2908
0206
FADA
FEF3
F5FD
03F0
10F5
091B
ECE4
EBFD
D6ED
FB24
F1EC
E721
0122
0312
F6FB
F8FF
E2E7
F402
3913
0613
E8E6
2012
0FF1
0406
E418
012A
0BF5
E00F
27E5
F129
02FD
20E4
F6EE
F8FD
F913
FBFC
EEFB
D7DD
F5D0
DA0A
0607
2717
11F6
1934
04F2
0400
07F6
FAD7
FDF2
0616
0816
FE00
2102
FFCD
05F8
ECF8
1CD1
EEF3
111E
F4EF
DC01
171C
F608
E4E1
18E8
09EC
F2F0
1100
FC32
F113
0F03
03F8
0F05
FDFA
03FC
FB10
FE07
0114
13FA
1516
FB1A
17F8
08FE
FDF3
FFFE
F500
0EFE
FD05
F906
F811
F4FC
FD11
1509
FF10
F8F2
12F0
FC08
0D08
000A
0C14
0303
0401
FB08
4DE6
0225
0503
0118
EF1D
F22C
1CFB
00E6
0023
211B
F2F5
FCD7
F800
E2FD
9BC6
E408
0FEF
E71E
F623
27F9
0C1F
06E2
E6F3
E3E5
E60D
192E
FF08
F5EC
25F5
D7F6
101B
FF2E
EFE6
140E
0920
0A1A
002B
0C12
EC2E
0605
1511
121A
F620
09E5
E3EE
E521
E712
06F3
E206
E009
0112
1D0F
2BE1
051C
23D1
F9FE
17F0
0022
EEEA
0AD4
F622
28E4
D1FD
07FF
DAFC
0BF3
F5B7
F9EA
04FE
E500
DE01
1B03
FDFF
0819
1AF3
0CFC
1CF1
060C
15FE
2CD4
F610
1C01
03E9
FDD8
F1FE
2402
EA09
36F0
28F8
E6E2
F8F1
FC06
EA26
1E11
EDFA
F103
0D2C
F1F8
300B
EA03
0AF3
F3D7
0E14
D1FF
D6FA
E1E8
DF0E
0FFA
040E
07E7
02DA
E9EC
0512
F1BF
270D
E6ED
26FC
16E3
1CD3
16FA
F8FC
E4FF
0A09
FA2D
E108
16F2
E81D
050D
FC09
0027
18ED
FE11
1305
0E06
0CED
E1FB
FBFE
09FD
EFEC
1509
1AD8
21DD
EF10
FB14
F018
CC19
FE09
F2DA
E006
07E3
D80F
1432
1E19
0114
E5CF
D1FE
2A06
21DE
0609
BFFD
28F3
F213
30F0
01F0
EE09
FEFE
F1E1
DC0D
2806
15F3
FDE8
C8D7
F902
F111
F717
E3F5
00EB
D236
E405
FC09
EE05
0AE2
F111
2F07
09FF
000E
FCE7
E923
0F0F
F2DE
06FD
04ED
090C
1405
02FF
0D16
FE0B
FDFD
0007
17EB
0803
FD12
0E0E
13FB
F7F1
FEFA
F804
15FC
FD11
01FE
F908
FBFB
0708
0D03
0C06
0BFC
11FD
F70C
0000
FF0D
0904
FB01
05FA
FDFF
EAFB
E31D
02FF
F8F6
FFF7
00BA
F247
F3EC
FD2A
11F0
E7D4
D316
FE04
EF25
20F1
F200
FD17
EBCD
2E25
01EF
DA13
D609
2914
FD04
D106
D709
FB1E
1201
1A07
12DD
F823
03EF
F3FE
F9EB
22F5
FAFB
020E
2017
ED08
19FE
FB12
0D01
FF1A
2CEC
F8CD
FBFF
1D20
1EF9
F2FC
151F
EEF7
FDEC
1D06
04F0
14D9
CAFD
E1FA
F3EA
FFFF
08F8
1EF9
2801
E706
FFF0
07F1
E00E
F710
FFCF
16F9
D42C
FC28
23EA
EA0E
F2FA
1BC1
0D09
0310
E9F9
07FD
E511
FDF4
12E3
FADA
F2E2
D705
EBF0
0308
F706
F1D7
01FF
0539
220F
26E1
16F6
E505
F31D
04FD
13E1
E3D8
FE13
E426
03B7
08FC
11DF
47EC
F801
ECED
00E5
0333
CAFE
0918
FBFA
0409
09F5
0213
1FF0
ED1B
FA12
FBD2
E8EE
0103
1E0B
F503
2315
E7C3
C5FD
0418
0205
101A
F901
F2DE
050E
EB1A
2F07
06FA
01FB
FEFA
1FF2
0CEE
092A
E2F1
2BC8
020C
31F8
15D8
0CE0
1D07
F706
EE0F
E8FD
0429
E909
CDFD
2C0A
16F6
DBE7
FCE3
DA1B
E2F7
00F6
0103
EFF8
1AFD
FD0E
0829
E920
FFF9
23FC
0AE1
EDFA
0C0C
1FE9
FDFB
1BD9
FAE9
F1F3
E90D
1FF4
FC02
1D13
27DC
0B0A
F007
F40C
E7F2
12EC
F807
ECE3
1A0F
DD1E
E5F6
DB23
04FC
0C08
ECEA
0F07
F614
FB14
1B0E
14F4
1E12
031C
09FE
0FEF
F901
F504
F40A
F207
020E
EFF6
FC08
00FA
F304
F212
F511
18FE
1CF3
FA0F
081E
FE08
0D04
0CF8
00FA
FE08
FB37
EF24
FE28
E7F2
03E0
BC23
EBF3
13EB
0612
02FC
00FF
0504
ED0C
0D18
0CF3
00FF
E414
1DFF
D5F0
040C
290F
E4FF
FF21
3416
CBF8
E2F9
E5EB
F7F9
FA03
F407
EEFE
DC0A
373C
F71A
F73D
F111
FDF9
ECDF
F3EE
10E7
E7F3
F9FB
27FE
04F4
E317
2BB4
F0CD
1F2A
F802
0910
EAFA
2727
2905
D7EF
EE10
F319
AB04
F1F0
11F9
1126
F417
CF1B
F82C
270B
2DF4
10F3
DCFF
151F
0613
DAFB
0B0E
2F13
E713
BF02
24E6
20E7
0E21
E9D8
0901
D70B
F009
06E0
18E5
13FD
F3F8
0F0D
E1A9
E6EC
EE16
08C3
F8FF
FA3D
0122
3308
B10A
C109
1C17
0E14
C112
1200
FBEF
3EF5
0204
1FF5
FBEB
1504
05F4
EE25
E0FB
0A30
F5D6
26F8
FF1A
F3FF
EAEA
0018
F2FC
0311
1F12
07FE
00FE
0307
F503
E917
02D2
C0DE
F3FE
EDE3
9B10
F0F2
FC1C
0626
1516
12EC
0D03
EB03
07FF
ED14
0710
12E4
0B04
01F8
10E1
09F9
0CEC
FDE9
F5F7
D9D8
2803
29FF
DCE7
3FF6
11DF
DCDF
060E
21F0
1103
2C0A
2918
11FF
15EF
0BE6
A116
1001
1717
F222
0511
1B08
F022
B317
F104
08E3
1FD5
81EA
13FC
ED0A
04EC
FE0F
FF0A
E1EF
F90E
00F4
C4FE
0BF3
E500
2DE2
02FB
12F7
E72E
21EB
FCD9
03FA
FC02
0BF4
E8E1
FC0E
EFF6
F70D
00E9
DE02
070A
0D1A
DDE0
F8D6
1703
F82C
FBF0
0EEE
0ECC
FC24
F10F
E4CB
DD0D
F9DC
E71E
010A
0623
0716
04CF
FE01
1512
E600
0802
09E4
FF33
FE19
1EC6
EEF6
FBF7
F1D3
F5F8
E6F8
ED0E
2518
3007
00E7
0615
0805
2504
EEF1
FF11
1BD9
F906
1F0D
0804
0117
FC48
0D13
0CEE
E40A
F1D8
CE29
F620
01E9
F00F
E71F
0014
0210
092B
221A
02FE
10E7
F1FC
39E7
1D20
0C06
3B15
F9F6
020A
12F5
E104
0A01
F7F0
E4E8
DACE
0FF8
FAE4
DF04
DCEB
37F3
0303
DDF7
0117
0A06
F603
2C14
1402
0404
FA17
FD2E
1ABE
FDE9
0709
F6EA
E203
F10F
0204
21F9
1723
0B23
EEF4
D703
2B1F
22F8
F3FF
E719
08F4
0903
0711
DCE2
06F7
21F0
D9E2
FAED
F3FE
D8EB
D9FB
161E
18F3
F0FF
1CE5
05F5
D610
DF03
F1F6
EFFF
1935
E9E8
EA0D
05FA
E8D4
F3CF
0D0E
2FCE
0BE1
18D4
F8F1
16E5
141D
F408
FFFD
0CFF
2319
08EC
2AFF
02FA
051B
21FD
1AB8
2E10
F629
DF25
2039
1002
D413
FF07
FCB0
E11D
EE0C
F002
E611
150D
1AB7
14F8
F512
D903
0510
2EFD
F20E
FEE7
13E6
1101
F506
02E8
1103
1C00
C10C
17FA
F7F5
F72B
F522
F012
D01C
FE05
1308
00FE
C007
082A
1139
23F9
04B7
EE0D
FE14
DE03
0819
E2EE
F401
1505
F9F0
E406
03F8
0541
F3FD
01EE
02E6
2525
FDE9
0FD2
04FF
00E1
E7FD
08CD
112C
1B10
EE14
06FF
EFFA
FDBF
FEF4
0401
E8BA
D224
0AC0
FB08
12FC
F91E
1908
1628
0DF9
41E8
DA21
06E1
0CFC
EFF2
11FA
E422
0BF7
FADE
04DA
01C9
0E1C
12FA
0412
10FC
E3EA
F506
29DA
E7E8
F6DE
05B9
37DD
06EF
0002
18FD
0AE0
F7E8
F206
2600
E0F4
FDE6
0EEB
F3F3
1F0F
020C
0AFD
10C7
010A
00F0
F706
F30D
F8DE
D7FB
E90A
FD22
02F1
0420
1FCB
E70D
EA02
FE0B
10F6
0EE4
1DE9
1108
0A19
F109
0704
0508
EF0E
070D
FC14
22F1
E7DC
FADB
FCF3
2014
FCFD
FDFC
0800
FB2D
07E4
0304
E7EF
E5F0
03D0
0406
02F8
08EE
F00B
E0F0
FFFE
FEF7
2A09
111E
03F2
101B
E614
0EEE
1523
0603
EA2A
F80A
FBF3
54F1
1111
E30B
14EA
F5F1
E819
DEE3
E7EE
08F3
25DF
14FD
F6CA
02EA
13F2
24F5
0924
33F3
08ED
15FA
0B18
0A1C
ED12
F5FC
EF08
1BE1
EEF7
E5ED
E41C
081F
08FC
25E6
04E6
4E05
E311
152D
160C
31F4
F219
14F0
14F9
0AF3
E5EC
F1F2
E543
CAB1
14ED
0F1A
EA10
3418
EE0B
0E0F
0300
241B
FD11
0BF7
F80A
070A
EF04
12F3
00FA
33D1
3015
021F
1B0F
F9F9
EBD2
EB10
08F8
08F8
0705
F60C
DFFE
D804
FB14
EFF5
0AFB
FB00
01F7
DD1F
0EFC
FA36
1605
EBFD
1C01
0902
F3F1
0C1E
0520
0AF1
04F8
1DFB
F61B
12E3
0407
0EE0
0CD3
140E
0EFB
12E5
1000
1319
EBEB
10FF
F8F6
D4F8
0FF8
D1F1
F2E6
0C09
F10A
F30B
E91D
EE01
29F4
2910
0201
09F9
1706
ED07
B5EC
02E4
F6FE
E0E2
E715
F230
FFF0
FE04
F7E1
190C
F3F6
0733
43E7
1D1A
E40F
EE1B
0912
D4ED
3ED8
2C04
F404
1CE7
04F5
3F02
ECF0
120A
F102
01ED
21DC
E613
1AFF
FB13
101A
E916
3503
171B
17FB
05F7
F51D
0901
20F8
08DA
0208
FCFA
F6F5
1425
1824
0D12
F9F3
F200
EF00
E2F4
D805
0CD5
F6D3
F904
FE0B
29FE
1D09
0302
200A
2CE1
27FC
0B0B
FBFE
F50E
111F
FFEB
F6F1
F8F2
F4EF
1305
FD03
1C13
E1F9
09D3
2411
11F7
050B
1DF1
F402
F905
0109
0A18
14F4
0812
08F0
FAE8
05FB
E8DF
09F2
DF13
F3F1
1EF5
FF0F
1B0A
01FC
0D11
E204
F9FA
08F9
23EB
201D
F81A
1301
09F5
E8DE
CF14
0002
07F8
0706
F009
F8F0
DF09
E70F
FC03
12FA
F4FE
F9F9
EB1D
0D0B
0E20
200F
0F09
F107
0102
36E6
0504
160A
F809
10F5
EDF4
020C
FB0D
F227
F324
F9BC
0BF8
1D1B
121E
F30D
21E7
1C14
ED29
E8D8
0B1C
F509
D429
000B
FB06
14FF
E9F7
21EE
27E1
08FE
1C28
FEEA
EBF6
21EE
24F2
1023
F921
0BCA
031A
EEFE
D606
EB1A
EF0D
1406
2222
0BF5
BA0A
FB1F
08D5
FFE7
25DC
FEDA
EF09
F30B
EA0E
FAF4
CDF8
FBE5
B8F9
101C
1D1F
F0FF
C8EF
EAF5
07FE
27DA
03FC
0FF0
12E3
0513
1301
FEEF
F60E
D808
2DFB
06FD
F025
E303
F6DA
D810
10F8
2506
F808
0BE1
1225
E6FD
FCFC
F606
F0D9
FEEA
0313
0601
FFD1
D7EE
F60A
FDF4
29E8
180B
0F13
0B01
FF10
F8F4
FE00
02EF
DDFB
F2F0
200C
F4DE
4102
0E00
0FFA
0401
3005
E705
06F7
07E9
F60C
EAEE
F21A
F8EA
29EB
FFF1
E1E5
F60A
0BF1
EAE2
ED0D
DC29
4F02
23EA
06F8
16F5
0437
E9ED
EBFE
1002
ED04
DC22
0B1E
EFE0
1709
E4F2
C102
F512
F10F
18D9
F4E8
F80E
0639
050E
03FD
0BF0
4DED
F7DE
F206
15F2
FE06
10EE
18F4
231F
F701
EA99
F9C5
37F5
F804
05FE
3601
09FA
E71F
0C16
200B
1607
E1D7
F8FB
0A0F
FE2D
D923
0A0F
CA03
FBFB
9FF6
F50E
CD08
E4F7
0B24
D8E0
0214
1719
F803
1CE3
100B
F704
EBF8
17FE
04FA
1245
E5FC
0FEC
1008
F7F8
F217
F814
1907
FB13
0B22
2119
110A
FC54
E322
E81F
D1F9
E8EF
08EF
EFED
FD03
CA23
35F3
B8FE
1B0A
E9F6
06EA
231C
1605
F20F
07FB
1114
0AF8
0907
F930
F5EE
26F8
FAED
0B17
180F
2A14
FBF4
4BD2
07F0
2C38
1525
EAF6
E70A
F30E
ECFB
EFF6
C9FA
F301
0515
0D11
E8FC
F813
F6EE
0FE9
0E05
E813
EDF8
FCF6
F0F8
ED0F
FCED
F2F0
2E06
0DD4
E5EA
16D1
D90E
E702
F714
EA1C
F11D
43E8
DEDA
FDF1
D0F0
1C32
F6FA
340C
F5FD
1DE6
28CF
E9FF
35EC
FC02
FBD5
06F0
1B09
1D35
1628
D0FC
EA1A
FD11
CE0D
ED0C
E2EB
EA16
06DA
21FD
09FD
E3E9
FADC
21D2
EED1
18DE
EED3
0B10
0A1D
D8E2
F014
C4E2
070D
1F07
181D
1EF4
1B0E
F305
04F5
EE12
1B19
051D
172B
3712
1538
090A
FD05
EFF3
10D6
DDEE
03DD
F00A
04FC
4708
14F6
EE05
0727
06F9
F6F9
26ED
F8EE
F8FB
07EA
0B28
E504
EEDA
EB25
0AEA
1B0C
0DEB
F4FD
EC23
FA30
D82D
10EF
DFE9
0EFF
04FB
EDF1
131D
082D
1CDE
190F
1702
FA0A
0303
F60B
062C
E80C
08F9
F8FF
0B00
0918
07EE
0AE3
1213
19FA
D50A
2AF6
04F0
ECF1
0901
0819
2502
02F3
181C
18ED
FFFF
EF10
F6E9
C30E
0034
1116
FD10
0700
DB07
FF0D
DB0A
1205
38C2
D9F7
EF22
20CD
EB16
120D
10FE
1BEF
09CA
1AF6
0517
07F8
18DC
03D5
E21A
F223
3E0C
F2E9
36D8
F806
E6EF
0ED1
FDD4
FB17
02E8
F801
2016
28FE
DF09
EB0C
0713
100D
E72D
1115
1209
043D
F00C
2017
2FEE
FD04
F81F
0B18
D822
0810
E6FE
DEEC
E5EB
0DEE
23F3
09FE
FB0E
F11C
F5F5
1E0F
F818
FB0F
DA1A
FEF3
CF33
07FE
EB0A
12FA
342A
E2E2
F8F5
180D
09F7
1AEE
2307
08FF
E0CB
16ED
3214
F3F4
030D
B71A
21DF
09F8
2E02
EC00
D6EC
0FD6
0AEE
0E0F
DAF4
0AF7
0AEB
0606
F8F9
0AF3
1303
F40F
0AF4
0806
0C11
F615
F51B
BB0D
FDEA
C52B
000E
0CEB
F135
FEE5
15F7
D805
CFFC
27EA
F7FD
E0F2
D5EA
FEFE
0E00
20F0
B003
0113
1007
11FC
FA32
27CE
EAFD
4618
4FE6
DEF8
22F9
0AE7
EE02
1A28
DC3F
00FD
3FE6
0CE5
F9F3
E9EB
0903
28FA
1300
C8F8
DED5
F0EF
08E7
3EFF
130A
F203
B5B8
0CFC
2322
020F
10E9
FE1E
0B01
F0DF
FD15
1D23
C805
FA0A
18F8
0D2E
FF2E
25EC
B7D3
0AFB
1351
19E0
230B
FBF9
FFFA
07FC
7009
FBF0
D0FF
06E9
3A07
38DC
F6E7
F7F0
D80E
1302
2DD7
001A
F3F8
03F0
03EC
DAF8
0EF0
F50A
031C
0003
3CC8
1016
D908
F8FF
EAF6
E20D
E1FA
EEE3
0AF1
12F0
1223
041C
0003
F629
FE14
1205
F2EA
FB02
1502
05FB
F1F2
FFF7
DCFC
1611
F912
E506
07EE
F7EF
02E7
F923
DDF3
F201
12F0
1205
E5FF
07DC
E3EB
0C00
EBFA
F50C
080B
F0F5
E2F2
F911
CA00
D008
2603
FAF5
D4EA
1508
F9FF
0CF7
3C15
03F6
4505
0405
140B
0502
F8FD
F70D
0105
FA09
FF00
0608
2706
1102
0D05
060C
1A0C
180D
250B
170E
0A0C
F807
1BF7
0C01
17EC
0C07
F806
FA10
0C35
F106
FA04
FE05
1502
FD03
0F0A
E403
FBFC
10DF
02EA
03DF
030A
01F6
00ED
FFFC
21EC
FD00
E6F7
FFFC
FDF6
D307
16E5
DEFA
081A
19F2
00EA
FC04
D006
153A
18E4
040A
FB1F
FBEF
C90B
1003
14F4
F4F2
1BF8
F7F6
1115
1FF9
0008
1013
EC07
3909
111F
FFFA
2DFD
2901
0EFB
F61F
F6FC
0CE3
1ED5
DF28
0D03
1CF8
25F9
FCE1
03F3
F205
F6E8
F5DD
140A
FC0A
0B02
F0EF
3AFC
23EF
0CF8
0DEC
010D
01F7
0FF3
0DF9
F3F5
E8DF
40E2
F609
2AE9
1207
16F2
0DEF
1BE7
E625
0D03
BF12
0318
23E1
D21B
FCEB
0EF7
0E04
022C
10FE
F21B
F702
0115
F5FD
25D1
17E4
08F1
F4EC
E818
0000
0000
0000
0000
0000
0000
0000
0000
0000
0000
0000
0000
0000
0000
0000
0000
0000
0000
0000
0000
0000
0000
0000
0000
0000
0000
0000
0000
0000
0000
0000
0000
E0F2
DECD
E220
CF02
BCE6
2BDE
F1EF
0003
F2CB
C9FD
F4FD
E1F3
E9F2
E1D5
D4E1
1FFC
0602
DD0C
1D04
81F5
FBF1
18CB
F4FF
C9DB
01FA
D4EE
0CE3
F0E3
1BFC
F6DB
EF05
F802
05E0
00E4
1DF6
B4E4
0AEA
F6DE
EFE5
1420
15A5
BC00
DBFC
D603
E70D
0118
0AF2
FDF4
0300
F2F4
02D4
05D8
2808
FCDB
EFD7
03F6
F3EE
0B18
1DCC
0106
1AF3
F9B9
EAE8
EF0D
08F9
E0F4
EFF5
D0DF
F0DF
09E8
DDEE
18E6
07A6
210B
CCF0
D6F0
0A12
F707
EDFC
130A
EA0E
F1EE
FCF2
05CE
0EFD
11D2
EE02
16FA
0517
D1F4
ECCC
0517
0FDA
E5C5
F21A
F4F3
FEFA
F0F8
DDF8
B110
DBE9
E9CA
F216
EBF6
F9A8
1D04
ECC4
D2E3
FB01
FE17
15F2
F11B
05F5
DCF0
E8E4
FBE4
1606
13EC
DADD
14F7
EC03
DE1C
04E7
0118
1C21
ECAC
0DE2
FEFD
DEF1
E004
2AE2
B7FA
E5E7
04EE
F1E5
FB0A
FAAA
E50F
E1FA
DD11
18FD
E10A
08E2
0BF6
0E03
EFF2
DED7
18D1
1525
22E1
DFFB
E7F1
FEF5
EBFD
EBBD
FF15
16F8
DB02
08FC
1DD5
F7FE
D9E8
1BCD
C70A
E6DA
06E3
F6FB
FDFE
E5A3
F414
E2D8
D6F9
ED04
F304
0706
1FED
E807
F4DA
00DE
0BDC
15F0
00CE
E60F
0FF4
F9F8
0919
E7E4
FF0B
1109
09C0
F600
031B
E8E8
E9F5
CBF9
C5F5
F5E6
FEFB
F310
0F1D
EEA6
FF08
E0D7
DCF1
0A25
D704
0907
22F8
FFFE
06EC
E9D7
01D9
140E
0BD7
F2EB
FBFC
00F5
1701
FAB2
EF14
21ED
FBC7
E2F2
01F1
E404
F7E6
0DF8
B222
09D0
02F2
F2F7
F9E6
21A5
EE11
DFEA
E223
E9F7
E601
03F6
160B
06E3
EFC8
FFE0
02F6
1701
0AD5
D4D8
28FF
0AF0
EEFB
D3EA
1612
11EF
FDE0
F810
FAE1
10F5
0609
02F4
C3C1
E3E1
0AD7
F4FC
F80C
0B92
F518
EEEF
E1EC
EA0F
F5FF
15FD
0DFB
E3FC
EDF3
FDEA
07DD
1912
03E4
E201
0CFC
F9F6
E3FF
F1D4
FA1A
1701
D4C4
E70C
F0E1
F8D8
0DF2
1AEE
C706
E8E1
EDFD
ECED
0E05
F897
EB24
FAF6
E6F8
09F9
0606
0309
13DE
ED25
D4EF
FFCD
05DD
1DF5
00DF
C6E5
1FF2
1113
E908
D2DC
A513
1715
E9C9
1EE1
EEF3
0910
DEDF
1CF4
AD0B
EBDE
FDE0
F802
0AEF
259E
FD1C
E2FB
DAE8
0018
DA0D
EFF9
0507
E0F4
D7EA
E6D8
FDD6
0C1D
16F9
E4FB
F1EA
EC06
2312
F6E2
0C0F
04F4
DFCC
EBFD
EFF0
F0F2
E106
0CF7
D4F5
F4DF
F2F0
E0E5
EAFF
0AA7
071A
D4E8
E502
DA1B
F200
FEF5
FE0D
07E8
E1E6
07E0
FEDE
1105
10DC
E90B
00FF
0DED
0708
0197
020D
1B0F
E3DB
FC17
19F8
EAF0
F5F6
F1FB
C1D9
EAF5
06EA
F4F6
FBE9
04A3
0E0A
DBE5
DE1F
DB11
F709
DC27
1FF0
070F
E6DF
11B6
18DA
1520
08EF
D8EC
0CF3
E4F1
E617
EECF
F206
1906
FAF0
F302
0FD9
