E6E6
E2EF
FD04
E0E2
0BFE
2007
3B3B
CDCB
DAD2
1C05
0505
0C09
E8EF
FB16
0708
0809
F1DE
E0E7
000B
EAE5
F7FB
DF04
1410
E3CC
EBF2
0706
F8F2
CECC
EBEA
1812
1710
1A0E
0D16
4863
E5CA
FDEB
1416
F904
0CF5
D1CB
080A
EFCD
3C2C
10FE
E4EA
F406
EBD9
171F
EBE2
050C
141F
DBDA
0308
F3E8
090D
F5E9
E5ED
09FE
F002
0503
E4DD
1910
FBFE
E1D7
F4F3
FA08
140B
E312
FEFF
2019
DBF7
EFEC
E9E5
1607
0CFC
2403
E4DF
112E
0413
F8FC
04FD
F3D9
13FE
E4E7
E3E6
FE1C
160C
DCF8
1017
F0F1
07F2
E5F9
F1FF
1A24
C7DC
F2EC
EBE7
D902
EFED
D9DB
EBE8
241D
F9FB
F504
F8EF
2902
0E01
F309
1D14
04E1
EBF0
3831
ECF9
0EF0
F0FA
1F20
F9F3
F8FF
1004
E9F8
DFDB
DCED
EBF2
F61B
0EF4
F1E0
FE0A
1A29
090D
00EE
FF01
0C0D
DFEA
04EB
0305
F600
F5FA
3B41
03F9
D8E4
F3E6
2218
03FA
EDED
D7CD
07FD
1502
FD01
0900
EEFE
1FF0
101C
EDF6
4D41
DBD6
ECF0
FAED
EFE9
1120
F3F0
BFBC
0D0C
F8F1
F002
211D
03DA
FC06
F8F8
E9F0
1FE9
09FE
100B
EE01
E4E9
FCF2
F1D1
F1EE
0705
D2C6
FE0D
FD09
EE0A
ECE5
F8E8
D9DD
F0DD
1529
E0E2
0B0C
FA07
482E
FD0F
F4F6
CDEE
150E
0604
F6EF
FB0E
F0F4
060A
F6DF
110E
090B
0815
1007
1D0A
3C46
0B0F
F3FE
17EE
FCF4
E9D7
EAE1
1D0E
07FC
1D11
F2FD
212D
FAFA
D7F4
F501
1004
0104
1F21
FDF7
FECA
0EF3
2B24
0F14
0BDF
DDF8
0527
FEFA
0A02
1D14
010A
1210
04FE
FDF7
FA02
0006
C5E0
0214
0BEA
09EB
2B3A
2CFA
2E18
06F1
0D05
06FA
E2D2
1821
FD20
1E11
CDB9
00F6
0CFB
14FC
0AFF
0C04
1630
1921
0C0E
E3DA
0AF2
E6E4
02FB
1314
240E
0303
FBEA
FBF9
CE81
0915
0E07
05FF
2A49
D4CE
E0CB
ECE3
140A
0601
E1ED
E3D8
FAFA
0205
1A20
ECE3
1B3A
0102
0F02
2107
1E1C
0412
2B14
FAF7
0CFB
FFF9
F7EF
EEEE
08FA
F2FF
E9E8
F5EF
E3FF
F7F5
09F6
F3D2
1C07
463F
FFFB
2E2E
1128
F510
E2F7
F2D1
03E4
190C
E5F0
0A15
F4D7
D8D0
CEC0
1011
2E26
241F
FAFE
E8EB
EEF1
11FB
F1FA
EBEF
0A14
F7FA
F0E3
0409
B8E0
FFB0
01F4
F001
E9D4
1521
1501
1618
2E04
F3F8
D6E3
09FE
F31D
FC09
FAFB
FEFF
FCEF
FB04
E4F6
D5E2
0306
0200
FEEB
E0CA
D1DF
2E2C
1608
F203
1C0F
DFE5
2817
F2E8
0902
FBFD
DCDE
070B
0605
0809
FFF9
EFFB
E908
01F9
F9DE
03FC
F512
FA07
FD04
1B25
231D
F9EF
E7E2
F8F5
E2DC
CEDB
0D19
201C
D2E8
ECF8
13FC
252F
D8D3
0409
100F
040B
F89E
B4CF
F007
04FF
1834
1904
2E21
EDDB
E110
EBF9
02EF
FAF8
0325
0103
E5E8
F7FC
05FC
08F3
D9E4
F6FB
EDFD
ECF0
F3EC
E2E7
E5E0
FFFF
08ED
0108
F70B
F3FB
16FB
ECF8
0825
12EF
EFFE
F701
F92A
DAD5
F50E
E4EE
063C
CEE0
F6F9
4736
D503
00FB
DA00
DDE4
1703
08FF
F4FA
F6F8
192F
01E6
DEE9
F9FB
C9C8
F0E4
F7FD
0723
EFED
0817
100B
F6F7
DED6
DEFA
E1F3
E6E7
DBE2
2030
020B
FEFB
4145
0D0D
F207
DAE0
0A36
12E7
FBF2
F8EA
EDD8
010D
DDDF
0B0A
21FE
F1FC
1C1F
EF0A
2B1C
EEE0
1426
F0E6
E2FC
151E
0822
100F
130A
F2EB
0E0D
010F
0818
0A0E
02F5
F8F4
F2F7
02F8
FAFD
F0F0
F6F1
FE00
02FC
FEFB
020D
CAF5
0FF7
1C00
0A13
FBFF
0B06
07E9
EBED
FBFA
270A
F901
16F2
0E0C
F6FE
1211
0503
0AFB
FEF2
1D22
F2FA
08F4
1500
FAEE
EBF0
F2F4
0608
FC0C
0011
044A
E0FD
ED00
F402
FC00
18FC
00FF
0100
FCFD
04F7
FEF1
F7F0
E904
170C
F512
DDFA
E6FE
FD0C
F207
FDD8
F8E9
1801
0D0A
1A18
D618
00DB
F6EB
0E04
0BEB
E1DC
F2E3
0CED
101F
E506
FCEC
F21C
FC03
060A
06EE
17FB
F5E4
ECF2
FDE6
F10C
D705
01EB
0506
01FC
DE0B
FD08
0403
0BFC
F808
E6F0
A8C4
F7FA
01EC
FE12
11E4
F70B
D6F7
EBEA
D8F9
FF8E
221C
0309
1208
F9FC
00FB
1201
03FE
FC05
F201
01F3
03F5
FEFC
E8FD
FC0E
FE0D
F0F7
F50A
FF08
020B
FA10
09FA
03EA
E516
F9F8
03F3
EF16
02F3
EE01
E711
EE0A
E907
FCFF
07F1
07F6
11FA
2307
E803
E511
C8DA
CA08
FBEF
F828
2AEB
CB10
AEDA
0C0D
260D
C007
B528
EF01
0203
F6FA
F7FD
1200
04F9
F6FF
EFF5
FFFA
FFFB
FBF9
FAF5
F7FA
FD0D
EFF6
EB00
FF10
0AFF
FF13
48CE
CF11
0EAA
E71A
2B12
F109
F813
0FFE
D809
EDFA
F2F4
07D0
EA08
08F3
F507
ECFB
01FD
15FE
FFF8
FBFE
FCFE
FCFC
FDFB
FCFD
FBFD
02F5
FD12
FA02
F2F1
FC12
040B
FD03
FBFE
0F02
01F1
08FB
0E04
05F9
FEFD
FAF8
E8FE
0913
0604
0CF6
F103
03FD
F606
FE07
06EC
0501
17E5
F9F9
0613
F6FF
E507
EF01
E7E7
EEFE
FC02
F6FF
F4FC
F506
F9FF
14FA
0108
F5D9
F1B2
F9F9
EBE9
FCE2
1A0C
F829
F7E8
AF10
DFED
0703
DC0F
09F4
07F6
02EC
09E7
D904
E32F
E92C
DAFC
F412
F510
FB0F
2A08
12EB
DA0B
0B05
DF16
EDF7
EC09
FCD2
20FC
0CDE
E8EB
F2F0
04E4
0DE2
FB07
E000
EEF8
D21C
F5D2
1A0C
0611
FBF8
F703
F5EC
D501
FE13
1801
E6F7
1F09
05E4
0AEB
F6E2
E1FF
1508
FA06
33D9
07FB
E90A
03E4
C216
11FB
0FFC
44DF
091B
0E21
3EEA
FAE9
0C04
E5FA
10F0
FDFC
2FF6
F313
FCE9
FA01
F305
FBF4
0CEC
0022
0007
FAFE
0CF7
FCF4
0B04
0407
0B08
0106
1CE0
0700
0015
F6FF
EB11
F9FD
14FE
EEE9
0103
04E4
04F6
0C01
15F5
11E5
F5E5
FC02
00E9
221D
E308
FEF4
00EF
0D00
DB0A
FDEE
CDFD
0C21
D4F8
022C
F50E
F615
1EFA
0C13
DFE8
1314
1DF7
03EF
090A
FA09
0C08
09F7
1EDF
ECF0
F2F2
1AE3
F708
18EF
D10A
CB06
EAEC
E70D
01EC
F8F9
FCFD
FCFA
2004
01ED
1314
F701
07F5
FE04
06F3
0CFC
F1F0
F30D
F3F4
0805
0205
000C
F6EF
3417
DB02
214C
D31F
13D4
FCF3
2401
F2CF
00F1
FD01
E703
2007
1D10
0A01
000D
FBE4
F3E5
F2FD
01D3
DBF9
EBF8
E31C
FC10
1A0A
F221
FAD9
FAE5
02FF
2D14
D202
04FA
0602
C9E9
F3E5
FF0A
1E10
0AAE
0C0E
E813
F0B7
F8FC
FDD2
FEF4
E5F2
E616
EAF8
F6DE
E61C
35F1
DC04
F80F
DA00
F724
0DD8
FAFB
17F9
FC05
1E03
0605
0609
2AE6
05F1
2EDF
E503
0FF9
ECFB
080C
EEE3
1638
0E13
23F3
DBEA
F616
0309
F302
0B17
B812
03FB
0400
FE07
05F3
17F9
F8FF
FD0D
0F04
01FB
FBE0
FFF9
FA0F
020F
F705
03FB
0910
E600
07EB
0817
F4D9
0AF8
31FE
151D
0617
19F9
FFC7
F408
FAD3
0919
E20B
FCE7
054A
FF00
0EE8
0301
2504
E9DA
F4FA
18ED
CE10
F91F
ECC6
090A
C619
07E3
09F0
E9FB
F30F
0F05
F80A
0AFA
09E7
0BFC
09EC
FEE9
FDCC
F9F1
E8F3
E5EC
F308
1608
D70E
0105
ECF5
F904
FC0A
0003
E5F7
1CFA
0500
1508
0F05
05F6
FDF9
06E1
FA06
F907
EAFC
E801
F003
F6F1
13EF
07E7
E308
EEF5
F416
110B
F4C7
1601
22F2
EE0C
FB0E
0EDE
07F9
F5F6
0E2B
15EE
08FA
F106
F3E9
1E05
00F9
EEF6
F9EC
09F8
0BF1
03F2
FAEA
DEF4
0B0B
18E6
F610
EC0C
0BFE
0BF7
EA01
09ED
0E02
DCFC
F008
F217
04EA
F103
F618
0007
EB06
0B0C
FEFA
F808
F9F3
F6C1
C8E8
BCEF
05FE
00EE
2101
FD01
FA0B
ECD7
2AFA
FAFF
27EB
E70B
F0DE
01F4
05FA
FE14
061C
EFE3
F0E9
EDF6
FF13
ECFA
F602
061B
C82A
F402
1F10
D4D2
FD26
0DF4
FFFD
F8EC
F2FB
F8FE
F6F2
E807
E204
0201
F703
01FA
F9FD
FF01
F704
02F7
E8FF
0119
F8F8
FF07
0AF4
1905
F008
FE03
F3EA
07FB
13FD
FDF5
0700
EA04
050C
01FE
FA21
F705
F9F7
E6D6
F1FB
E2F9
0CEA
E8EF
DB00
FEFA
1607
EDEC
0C10
F6F4
0EDD
F30D
F0FC
02E6
0804
0502
2EEC
06F6
ECF2
22FA
14EE
F9DA
EE0F
0B09
1BE4
E3E7
0402
F9F4
05E1
FF00
E502
E8FD
EEFD
1709
FDF0
16FE
000E
09F6
0608
09F8
FA07
00FE
010F
EBEF
07FF
0213
F5DC
E50B
0CE4
01FB
D1D7
1A07
1719
17EB
D0F6
1816
FED5
D108
E5EA
DAE6
12F0
16EF
FDFC
F709
EFFE
18F3
0107
0E02
00F2
FA04
F3FD
00F0
EEF2
0DF6
EF06
0A00
ECE9
FD00
11FF
07E2
01E7
E5DE
210C
FC0A
0700
FD1D
F3E7
FB0C
F10B
0B0D
0403
FE12
05D9
F901
0310
FDC2
B909
E8DF
1F1D
221A
FE13
0514
F0F4
DCB2
00E7
3BD3
E002
C2DD
1B1C
FDF5
0310
FEFE
FCFB
11F8
F2F2
FEFF
08F1
01F6
F9F8
FBF3
0BF7
070F
0201
F6F2
EBF7
FB14
08F9
0A1C
04E6
01FA
FA3E
0807
011E
1407
E7CB
09F1
FDDD
0D01
EC03
26F1
EAF7
0F0B
FF17
E817
0E0E
1511
F5EC
1C1B
DD9D
0602
EE15
1613
EC21
FCF1
33F7
0DF6
0210
FA04
0604
F5CE
F7F4
BCE6
FAEA
FCFC
3246
090C
F9EC
F5E1
11FD
F4F5
07E7
E222
00EB
EEE7
0302
F8F9
01FE
F2FF
FAF2
07FC
0AFB
FEFC
F8FB
FFFB
F402
07F8
FC09
F5FF
EC07
0106
FA19
FEFF
2D0A
F609
F807
0211
16F5
05ED
EAD3
0AED
F428
D232
F4FC
F6F5
0AF0
0609
EFE7
E817
1505
FAEF
0BE9
F8DF
37C7
FF0D
D8FE
F82E
1CE6
B20D
F107
2524
3623
1906
E8F2
ED04
F907
2004
13D4
FA01
EFF4
0101
0A01
0CFC
15DA
FAE8
FC03
E02A
0BD8
0009
F108
E4FC
09FE
0B01
0309
F8FE
0F09
04F1
08FC
0900
E10B
0109
0802
2DF7
FF00
020A
F0F9
E702
FDF9
1101
EEF9
10FE
FA05
00FF
FCF6
FAF3
FEFA
04F7
FE10
F5F5
EAE2
FD10
F211
14F1
FEF7
F105
120C
1906
1F1B
F8F7
0AF8
E7F2
E70D
E9E2
ECFE
FECA
F21E
DFEE
FFFD
FB07
1B04
0206
FC15
0B03
01EE
FD0E
0A05
0AFB
1823
12F4
040A
100C
D60C
FEEC
F903
EAF2
E4F7
EB0D
F9FA
FE21
0107
081A
021A
0E02
0BDB
0C05
FA04
1301
E2E1
FE0F
EE02
E620
07F7
DC02
F6FB
2808
16E6
FDF0
FA06
12F5
F7CD
F0DC
F50B
FFE6
04F9
000A
0E03
190E
E5D9
F2E7
F8F2
F810
04EE
0C1D
D4E1
010A
FBF1
F904
E605
F9F8
04FA
19F5
0C09
02E5
FF09
01F6
0BEB
FEF5
090D
FD0D
FFCA
170F
2118
04F9
10F0
1C04
EEFC
ECEB
0000
0000
0000
0000
0000
0000
0000
0000
0000
0000
0000
0000
0000
0000
0000
0000
0000
0000
0000
0000
0000
0000
0000
0000
0000
0000
0000
0000
0000
0000
0000
0000
0000
0000
0000
0000
0000
0000
0000
0000
0000
0000
0000
0000
0000
0000
0000
0000
0000
0000
0000
0000
0000
0000
0000
0000
0000
0000
0000
0000
0000
0000
0000
0000
0000
0000
0000
0000
0000
0000
0000
0000
0000
0000
0000
0000
0000
0000
0000
0000
0000
0000
0000
0000
0000
0000
0000
0000
0000
0000
0000
0000
0000
0000
0000
0000
0000
0000
0000
0000
0000
0000
0000
0000
0000
0000
0000
0000
0000
0000
0000
0000
0000
0000
0000
0000
0000
0000
0000
0000
0000
0000
0000
0000
0000
0000
0000
0000
0000
0000
0000
0000
0000
0000
0000
0000
0000
0000
0000
0000
0000
0000
0000
0000
0000
0000
0000
0000
0000
0000
0000
0000
0000
0000
0000
0000
0000
0000
0000
0000
0000
0000
0000
0000
0000
0000
0000
0000
0000
0000
0000
0000
0000
0000
0000
0000
0000
0000
0000
0000
0000
0000
0000
0000
0000
0000
0000
0000
0000
0000
0000
0000
0000
0000
0000
0000
0000
0000
0000
0000
09F1
01ED
FA25
17FB
1415
04F7
0D03
FDFA
D70A
0005
D8E9
2A08
FB0B
1FE4
2DAE
F1FA
D6FA
000D
F709
1B15
B610
1DEB
FA33
29FF
F643
E6E3
FA13
2E13
FC20
E2F5
2BCF
F4E3
E0F4
00E6
FAC8
FD04
0B12
EE32
04FD
E606
421C
F40F
2A00
230A
0233
A804
ABCC
E425
1301
1CFD
07E0
2409
C23F
040C
15C0
CF2C
F7CC
DAFA
FBA4
211C
2931
F001
DEF0
FD32
11F5
0CEC
16FF
F5E3
0940
0223
0DB3
EAFF
14D1
F7CB
CD29
0E25
1BE2
06EF
F2C6
F60D
FAFB
0BE5
07F2
F8E6
1425
F90A
F1E1
D11B
ED06
AA0D
04FC
E9E4
FD2F
F7F7
D7F4
F4EF
EBF3
263D
EEF9
061C
F8D6
1403
1709
1224
FBD7
2024
39DC
DCDC
A215
EED7
FD50
FACC
F211
0504
2908
D2E2
331A
FF0E
FFF9
C8EE
0619
2B3A
2822
D3C2
A6F6
0A11
0A10
09DA
14FC
FEE2
1200
00EE
180C
EEEF
FF4A
ED33
CDFF
0FEF
200B
F6CB
0D2E
21DF
0CDE
F213
FEF1
E9F9
F4F6
0B0D
EB20
00F6
241D
0304
F91A
020B
12E1
F916
F20E
E4FF
EA00
0207
08E7
1F0C
0F12
0305
0117
E320
0DFD
08FF
ED32
09FE
18F9
0DF1
000A
19FF
C915
F40D
0E05
08E6
F114
28E9
2016
05DA
F330
D5FA
1B14
1000
3609
1506
000C
CCF8
0212
050A
F909
22F2
F830
09DF
1430
05D5
D82D
F9FC
F1C9
1F0F
DCF4
060B
14F7
2DE6
16C2
F0E5
EBEB
0C0E
E5F3
10FD
EC14
EB35
FE35
E810
2A0A
EBF1
3D0C
0CC4
FF12
D4EC
EC27
0A09
E6D3
090E
EDF0
0A0C
EEFC
D508
48F2
F3FB
2842
02FE
34F0
070A
E713
E0DB
D4C9
0D01
E3FD
00FF
0511
0AC7
FCE5
EC11
060D
FA17
0E38
DEE9
0A15
F0F9
E410
F9E8
F711
04C1
F8EA
E1B9
F9C9
D21B
C133
0AFC
EB0D
E32D
FDF2
03F3
F6E2
041A
CAE8
2DDF
D8D4
EA11
09FC
142C
FB08
D0F1
2AD5
CB32
1106
BBBF
2ADA
1AFC
F0C2
DBEF
23C4
260D
1D16
F4F3
E7F4
DF0A
EEE3
2A22
D917
35F5
0DB6
0415
21AF
E8CE
FAAE
F7F8
0008
E207
3122
F8F4
F6F5
EFD7
12D7
1BF1
EF27
1113
17ED
051D
1BE7
EFEB
F127
1008
003D
25FF
0E20
0B0C
03F3
2401
0CC9
1E0A
F623
FB21
14E6
19FE
04CE
FA07
E6C9
09B9
0DFB
EDF2
29E9
04FD
02FF
2315
051F
EF13
1EE9
3604
EDD0
E3E3
4449
172F
0E11
E6D8
A8D3
39FF
0D25
F8FF
F41A
14E7
14CF
E932
30D8
0CEE
BF16
06EC
F711
410B
D015
D6E3
EA1E
0116
BD46
080F
F8F8
03F5
FACE
F215
F9DB
F715
FFF4
0E22
FE15
03D2
F8EC
05F9
1AF8
0700
0CE4
FD15
0BF6
F2EB
0C01
03F9
F108
FFFE
06C2
DFE5
30F4
F1F6
F20F
041A
0BB7
E0EF
F2F8
F502
0CE6
05D7
F4EC
2AE6
120F
DD10
0437
E42A
EBDA
F6F5
02E2
F6CC
E336
2BF3
F6F3
F4FD
0EF0
0404
21EB
28ED
0117
FE0C
37E6
E9E0
C5F1
EF09
15FF
17E4
2D15
EFEB
3D1C
F626
DB05
FEF1
E805
0AFC
D11D
2315
30CD
16E0
E8F3
1B19
0328
0A01
FA0D
01FC
1A2F
14FB
20F0
1F15
1AFC
F501
0B25
EE1D
0323
03E4
FDD6
E6E1
F415
FBE0
ED18
38FB
F7F3
1211
F4E5
0A17
EF10
E608
F60F
E811
15C0
0205
EC37
F1F2
FAF7
25FC
1304
01F8
F008
F910
B1DA
170F
C823
05DF
F5E6
D900
20DC
06FA
1FFC
FCFF
162F
DAF6
0C00
C0EA
A300
F6F9
0CF5
EBDE
FE9E
F4ED
FFFD
0300
09F0
ED24
E3FA
F1EA
EDD7
DFEE
EEFC
1DEA
EFF7
EA14
ECFF
182A
2617
0BF8
1BE3
E038
EF04
EFF4
7410
13DE
0610
E3D8
F30D
06FB
013B
07EF
0AFE
0F12
044A
27FD
230A
EAFE
F8F7
E22B
290E
EA14
3529
EACB
F8FF
C7F5
5B43
FAF1
0FED
E7F5
00E5
0BE8
03FF
1305
1121
4010
11FF
F0F3
19F2
F2CE
EB36
1EFB
D312
0402
0D00
FAFD
E6F1
08FF
F905
01EA
D41F
FED4
DAF9
F911
0907
F219
F413
08FB
F30E
0505
0DFA
DA09
21D3
0514
19DD
D0F6
30FF
1BEE
0EDF
1E03
0D06
2FE3
0FF4
460E
08B5
0F17
0AED
201F
FC01
1224
0410
02EC
2007
EF32
FBD9
FF13
D9D9
201F
F903
BEF0
1419
FA0B
071D
FDD6
051E
2D06
F210
F410
F4FE
E504
28ED
CB1A
DE00
FC23
EAEF
2C10
DFE1
1905
03EA
04F9
EF14
1EF0
FA27
F709
2626
29FD
F2DE
E0E6
D9D4
0410
F129
1FEB
0A04
F3D3
15ED
0A23
E827
0C22
1704
F306
EFEC
D4EF
101F
F91C
1C0F
F736
11D5
F308
CCFF
0A02
0DF1
01F2
11EF
09F9
EE18
0013
0AEA
E7F4
FB05
FA10
0CFE
02DF
0BE7
EBF6
F708
EC05
FEF3
F6EF
141C
0BF9
0D0F
1D30
19E5
F6EA
201A
E5F4
F002
1E33
15F6
08E6
DFF3
FEFB
1EF6
0A04
11D1
0208
1F15
EF00
0CB1
D8C4
F63C
C4E3
EDEC
2E20
3310
F3EE
B1F7
F130
000C
F9E3
E89C
10F9
FF21
D92D
E938
D933
0720
F5FB
FFE3
0DD0
FB10
F011
00FA
1A09
F3FD
F5EB
EB8B
1207
E109
1404
18F5
F318
F7D3
E6F1
2EE4
06C8
FF3C
FCFC
052E
FF0A
F3F9
0907
12F3
F00B
F62C
FB04
00B2
FCE2
FB04
EAFB
0FF1
0F0A
0EC5
D3F3
03F6
F818
EEFE
ECFE
EFF2
20EC
09FE
EBF3
F7FB
EC0C
06F1
FEFA
E5DB
050B
1607
06F3
F3EE
F502
EF16
0B0F
0717
0103
0B11
3702
F0D9
17C2
0AFE
F41B
FB02
F21C
25F0
F0F7
BA18
FDFD
08F6
E022
19C5
10EA
15EA
FAF5
0DF3
F5CD
20A4
E225
0E05
16FE
27E2
ED05
4218
1503
0603
F50B
0DF7
11F0
060C
0C06
0EED
241C
F6D7
F10B
03F4
E9DF
DAF6
0EF6
F3D8
FCDD
04E1
00E5
091E
4600
FC05
2402
FBEB
1ECC
3E32
DCDA
1EEE
0118
F5E8
11F8
EEFA
F6DB
14E6
0305
2632
E8FE
39D4
1332
4C8F
C9FE
E939
DA25
5A71
F2F4
C607
CDDE
1C22
EBEE
FF03
F9CD
FCD6
16F9
F9F0
14BE
DBCE
0C2F
E482
07CF
01EF
F501
D91A
22F4
33F2
0D25
08EA
1203
09DC
0A0E
193A
E423
06F8
DBDF
291D
1EF0
E811
CE16
F117
FCEC
0BC0
01EA
14E8
FFD4
FEFA
10ED
1045
F809
FE08
FB26
00C9
E6F3
EE11
F1F9
FF1F
15F1
FEDF
0301
06FC
1912
0CC9
1326
25E6
D409
15E0
09E5
CF19
F7DF
D0ED
3903
2606
F0CF
B6D4
EA26
0CE0
2AF9
EED5
0510
1233
0105
F7F8
F003
CF15
0E0A
1CD2
CEFC
DAFA
DFE7
F911
FFD9
F9EC
0820
E8EF
D512
F815
00FF
F307
FCED
F919
10D5
07CB
FAD1
3FF9
E3E6
9938
F436
1207
05E0
190F
0BEE
0A05
0E1C
F13B
1D30
C92C
DFE7
F9FD
D9D6
F328
13F6
ED07
0293
16FB
F4ED
16E9
EFEA
0D0C
F40D
2D00
0720
0AF4
10FB
08F4
E304
06FA
F802
E4EB
00FE
15FE
EEFA
3009
12F8
020D
19EA
3EF7
C5D4
0DDC
E4F8
1821
1F13
0E01
E1FE
F90F
05E4
03E6
FA0E
20A4
00F2
21F5
26F2
15D7
C811
1E01
CC0E
F5DB
C80A
D2F8
F905
EFF6
05FB
D7EA
100B
131D
0D1C
F6D7
1AF2
0DBE
0A14
A736
0B1D
1C48
C1F7
C1FD
DDE8
3C4C
E4EE
F305
05F2
EA10
FEF9
1801
06FA
F9F8
04FB
E3FF
FCFB
1912
FCF7
F720
E011
F90F
1EF4
BAF5
04F4
EDF2
0608
F8FA
09FE
1207
FF0C
020D
FE1B
0B00
0903
FC0B
F0F3
F819
E40D
FFEA
FA07
F8EC
FCFE
EDF6
FEF3
F003
1BFE
19F2
2AF7
F304
0015
FCDD
14EF
FDD9
FE22
FB00
FE13
0001
0A04
F90B
010E
FEEC
F300
F504
060A
5ADA
11EE
F8FB
EC0D
F8D6
EB01
FBEA
FAF6
F204
1411
FC04
FEF2
F6F4
0E11
F1EC
04F0
F4F5
F2FA
F818
EFE0
0EFD
0C0B
05FB
FB0C
FCFA
E70E
F70D
FBFD
0AF9
EAFA
16E9
DB04
4D03
0DFB
FC1C
170B
F6D8
F017
0301
2001
FC05
0D04
0102
05FD
EF04
1402
1D0B
0F18
0714
0302
F8F5
12FB
0800
1502
05F7
07E6
07ED
1302
FE02
09F3
0802
2F04
EF02
1E17
F2F6
FCEA
F8D5
F50E
F7FC
1401
FBFD
F702
FC09
12F8
FC07
0301
FB04
080D
1803
0BF4
FA03
FE19
08F7
17FF
06F8
1208
0E03
0405
0506
FC01
0C16
0800
0806
EE00
FDF8
0224
0DFF
0AFF
02FA
0013
07FD
EA03
F90C
020A
EB04
F203
F7FB
0DFD
EAED
F8FC
DEFD
0A0B
0407
FAFF
FA09
F703
01FD
FCFC
CEFB
0C05
03F0
FCF8
EBFD
0705
FF08
BF04
130B
07E3
F002
F507
ECF7
03EA
FFFA
0602
0CF8
12F9
D602
F4E6
0200
EFED
140C
1605
F30C
0E11
0D0E
0AF1
03E3
00ED
1705
FB1D
1AF6
F9F5
0609
0BF4
FDED
1CFB
0E07
2AFD
F3FD
2F0E
26F5
0EF8
FBEB
E8F5
0302
19F7
FBFF
FCF7
F9F4
FE07
FBF4
F0F7
FF05
00FF
FEF8
FE03
FB00
F9FF
FF08
00FF
00F3
0200
F4F6
F104
FB07
F9FC
FAFE
0400
EAFC
F800
0102
FB09
0DFF
01FB
F104
FFF9
0101
01FB
05FD
F900
02FC
04EB
FEF1
07FE
0507
0102
01F2
F802
08FB
05F6
0AF7
02F1
F901
FDF4
03F5
FAF9
F802
FB04
F8FE
FC01
E2F6
0FFD
0AF8
0106
F306
FD00
00F1
F5FC
FDF8
0A06
03F8
E5FC
0005
05E7
F802
FFF9
0FF9
0305
F9DD
E9B6
FAE3
EF0D
FA13
F91B
FAEF
14E6
E806
1809
E4F6
04F8
04F4
ECEC
0501
0E07
0809
FF08
40EC
1BFE
FBFA
0EDF
F2EF
E1FC
07FF
0BFD
FE06
03E8
000C
0103
0901
FEFA
0006
F303
FC02
0DF6
040A
FD09
0808
18F8
0006
FE01
0401
02FF
FD0E
F3F7
0B0E
0205
0FED
FC23
E5FF
0303
06F4
0609
0805
0501
F4E4
F3EE
001E
0605
F202
0801
F60C
0617
0BF8
F3D4
110B
FB14
F80B
E406
E905
1508
F205
E805
03FB
FAF1
0CE0
0319
04FA
0F10
DD18
350F
52E2
0405
071B
F7FE
0123
E7F5
03FB
FBF8
E5FE
02F0
F9F5
EFED
F80C
0DFD
E802
FEE8
FC06
FA05
05FD
F705
0104
02F6
E7F4
F4E5
F608
F9F0
05F7
FCFC
EDFC
FD07
FAFD
2213
F4EF
0202
F1ED
F0F2
FC03
FEFA
06F2
ED01
E10A
F2E8
E9FB
0608
F80D
0203
E7FD
12FE
FBF8
F8FD
11EC
03F9
EE02
F7FE
E0F5
F51A
0609
F8F2
F4E7
0D10
040C
D906
1301
CAEA
2E01
FF07
08FE
F1EB
ECED
00FC
1003
0E04
11FF
130F
1108
F3FE
0A08
FBEA
EA0A
FA1C
EEFC
06EF
FD03
EBE7
0110
FBEF
F2ED
0CE2
F9F3
0205
F9D8
04F5
0AFA
22F5
09FC
0FE3
A610
0002
0BEB
F90E
E8FB
160F
0309
190B
FFF5
F528
0AFB
FF12
F403
FE00
05E8
071F
0DFC
EEE6
F7F8
F6D5
F306
F9E5
0CF2
FE06
0F0E
061A
D7D6
0E0D
050B
F4F3
1DD8
810C
430C
FD07
FD10
0CF9
DFF9
FF01
03FC
F306
FDF2
F7FF
F802
F6F1
FCF7
FC00
F9FB
FD04
01FD
00F5
FDED
FE06
F4FC
FBFE
04F7
FD01
FDF6
F803
EDFB
F903
F8F3
F8F9
0202
FFEC
0EFA
F9FF
FAFF
FCEC
FAFB
00FD
0CFE
09F7
F6F3
0AF3
0601
F1FC
FA06
FA02
E9F8
FB07
04FB
03E3
05EA
F6FC
0808
00F5
F9E6
05F8
FD05
0808
E4F3
06FE
F3FF
1BF9
12F3
0B0A
E609
0514
FCEA
09FB
00F4
0311
01F2
F609
0104
FF11
1101
01FE
00FA
1305
FCFC
0AF3
00FD
0AFD
FD1A
01E7
F607
090A
1C04
0A07
F0F2
0909
0416
0506
0705
F9FB
03FF
D700
4308
01F2
0318
EB04
D0E6
F305
FBFB
FD05
FF0E
02F8
0A14
FEF9
F102
02FE
FD00
F7E9
01F8
0307
FE06
0204
FC00
1105
000D
04F9
0204
03FB
0204
0403
0604
FE09
F616
F324
1C0A
0D07
000D
0904
0601
F204
0BFA
FE01
0707
00F9
00FB
0303
0600
FE02
0C07
00F5
01F8
02FC
F9EF
05FE
02FF
0606
08FA
01FD
FAF4
FFFD
FFFD
01FC
FFF8
12FB
01FE
18F4
00F4
F502
01EF
F6FF
F1FD
02FA
00FB
0AF4
0AF9
0208
F9F7
DAFB
0108
05F5
0CFE
12F4
F8F9
F90D
FA11
07F0
FDF7
04FA
FBFD
FA04
F508
E804
0201
05F9
FF05
0104
06FD
F307
0EFB
FDF1
00F9
F810
0200
0705
06F4
EA00
0106
05F1
F1FD
FA06
0408
0017
1FF6
01E5
FBF6
F514
0AF0
1CF6
0AF1
FA13
19F4
FFFC
FC0B
EEFD
0A15
F9F8
FFF3
0003
F8FC
1BFE
EAF6
F7FF
0E06
F807
03EF
F5FA
0301
03FD
FDFF
FD04
03E8
0001
0005
FFFD
03FC
FE08
03FF
FC02
02FF
0001
00FC
FDFF
05FC
F9FD
0105
FDFE
0002
0201
F3FE
04FC
01F9
0403
FE02
00FF
01FF
FAFF
FFFF
08FC
0012
FD16
06F9
01FF
FA03
FB02
08FF
04FE
FF05
0BF3
0A00
0504
0104
FC03
FD08
06FF
0109
15FC
0403
FFFA
EFFA
0103
00FE
FF0C
F401
F716
FF00
0301
05FD
F70D
0603
010B
0EEE
FAFA
F8E4
0CDF
FDFD
1109
F507
0706
08FF
1CFA
0200
0508
0CE9
06FF
02F9
F903
FBF1
F8EC
F8FC
0505
E508
02FC
DFED
F103
08FE
08F7
E3EC
FAF8
F8F4
F8F6
FFEE
F914
FA04
FD0B
0808
080D
0102
FD01
0904
03F9
0105
FFF2
0AF9
0907
000C
FBF6
0212
0DF9
FC03
0A05
FC06
F9FC
E6FD
0603
0500
020E
FBF9
EC10
0D07
0602
0C06
FC12
0700
F715
FFEB
0001
E607
0A0F
FB07
02F9
F3FC
071E
DCFB
E510
0911
EFFF
FE35
C8F8
1205
0822
12F1
0AE2
0B03
05FF
F7F6
13F9
0CFA
B5F8
FBF0
000A
3DE4
0609
ED1C
02EA
030A
F30A
FFF5
0401
0207
0B05
F9FF
08FB
0009
0110
0CFB
F409
0804
0703
FF11
FEFE
030A
1208
F704
F700
0207
0CF5
FAFB
0A05
0FFE
0D10
F10F
F91A
FA06
0605
0A06
050F
070B
0705
ECFB
E804
FEFC
FF00
F503
0C01
04F1
F005
FEF3
0600
0305
01F9
03FA
0308
E2F8
12EC
FB04
0213
F6ED
0507
0818
F80A
FF09
E3F8
0008
0510
0E08
FCFD
0202
0DF5
FFFB
FB06
0EFC
1503
0607
181A
1005
FC03
EB00
FB06
0BF8
0516
F00A
FCFD
0326
FAF5
F40A
FA22
1609
F2DD
0CF5
1612
0E0B
ECFC
0803
CD03
EE08
07E4
8710
E8F3
1601
F31B
EEF1
1307
F7FE
06FD
0004
F902
DC03
0703
EF03
140C
1DEF
0BF5
0F1B
E821
00FA
2504
05DB
0400
E3F5
F814
0AFB
FCF5
0401
1413
0404
070B
FE06
1C00
4AE6
FAEF
E3E9
02FF
1305
F301
05F2
F7E9
120C
1501
F9FF
FC08
16FA
0904
00E6
F7C8
0C04
F7FB
F0EC
FBF8
03F9
0BEC
E2F4
FE0A
FBFB
E3FC
F4DE
09FB
0702
2F02
1801
20FE
66FE
06FA
F3E3
0F05
FF10
E606
FCF7
F8FF
EEFE
FD07
07F8
F6FD
E5FD
FB05
F5FA
0317
F0F9
06F4
0221
F6EE
F400
FC01
F203
0A08
FA05
FE06
FD0E
FB05
F615
E9FE
0DF6
F007
D10E
FDFE
FDFF
FE05
05F8
0009
16F7
F809
F701
13EB
EE09
0BF8
F411
FF0B
CF02
EF1B
E40F
FD0E
1DCD
FE00
FAF0
FF0F
06ED
0605
10FF
0FE7
DE0A
0116
EEF0
A4F6
F709
1F01
CAEF
0709
030A
12FE
19E4
0B0A
09FE
F0F6
E6FA
EAE8
FBFF
0312
100B
0308
0EE8
F5F1
0D05
0BFF
03EA
16FB
EE05
FDFA
07ED
FC05
FC08
FA0A
FB14
03F5
FDFC
2202
03FE
0C06
0C03
02FA
0BFE
E7EE
07FD
09FA
0AF0
F605
07F0
00E2
01EE
190B
020A
0206
FDFC
10F2
1704
0714
0AEA
F807
FF00
FF00
F1F1
0200
0001
0301
FAFC
0404
EAF5
1505
020C
1FF4
F3F7
00FF
FFF1
03EE
00ED
1104
04FB
0807
FC00
090B
FF02
FBF3
00FC
0604
FC03
F106
FF07
FFF6
F802
EC0A
0308
0000
09F4
FCDC
05F0
0107
FDE8
FFFA
00F6
0AF8
EB03
1DE6
E1F8
FAFD
FBF0
00F8
F806
0B07
08E9
FDE8
00EE
0A06
F8F2
0003
0016
0110
ECEF
010D
F7FF
EFE9
06F9
FCF7
F4FB
0610
0CF3
0119
FC11
E5FC
FDFA
030E
F8FB
E1F6
FA0C
150B
2BF9
05F6
121D
01F6
05F8
0B02
08F3
0C02
11FB
0C08
0AFF
0612
F3FF
02E4
2302
1414
ECFC
0E14
03EE
1CFA
F3FD
F8DA
FF0C
F90F
FDEF
1105
0914
F803
040A
100B
0804
D6FE
8F14
F0E0
1AD7
FB29
F6EA
0F08
0104
0A05
01FC
FCEC
E5FE
FC04
E8FD
0905
17EC
09DB
FA03
E81F
05E8
1BFF
12EB
0404
EB03
F5F2
0EFB
F9F1
F910
07FE
0708
B501
12F2
FE07
02F4
F6FB
F6FE
0D06
07EA
EDF7
00FE
FF00
FEFB
F5FE
FC04
FFFD
FEF8
FDFF
02FD
0003
FEFC
FBFA
FBFF
FEF9
00FB
01FF
04FB
FFFE
F9F6
FBFE
FAFD
FD01
00FE
01F5
01FB
FFF5
01FF
FAFB
FCFC
FFF6
F6FA
05FE
FAFD
0E05
F705
FC0C
FD01
010A
F7ED
F904
1D03
0001
F1F5
F307
F604
0601
0A03
1001
1603
04FC
04EB
0201
FF01
FAFF
0A01
F6FC
00F5
E6FC
F3FE
FB04
0906
F60D
E8FC
0001
0101
0107
FF04
F7FB
FF0E
0304
0BFD
0003
0500
000A
0101
FEFF
02FC
FFFC
01FD
09FE
03FD
FFFD
FAF5
04FD
0201
FEFF
0A03
07F7
FF01
09FE
F7FF
FBFA
05FD
F7FE
F800
09FD
03FA
0FEF
00FF
FB08
02EF
EEFE
0806
04F9
0603
070C
F2FF
F7F5
05FE
FEF6
0B08
FEFE
15F2
FD03
0409
0707
03FE
01FD
0504
0AF3
04EB
F60C
0303
FDFE
03FE
F107
FB00
1104
14F1
FDF1
1803
1EF9
1204
FAF4
060B
01F6
E208
1103
FF0D
03E7
FBDD
F1E6
F702
FB08
0BF1
FD13
FB02
E805
F1DD
0704
03F9
30F9
06FA
2401
2803
07F9
F9DB
0E08
02E6
F317
0100
FE04
0300
05FC
FE01
0102
0306
01FD
FF08
05FB
04FE
0400
04FC
0004
0100
0C02
FF07
0200
0107
01FE
F9FE
0203
0001
FC09
FD01
FB11
05FD
0808
00FE
FF06
0800
0001
0EFB
0AFF
FB11
02E5
EAFA
00FF
0715
F50F
060C
FAC9
06F5
F204
FEF5
FCFD
1DFA
0DFB
F7EA
FDF9
0A08
D3F6
F4DD
03EE
0205
F304
18ED
D500
14F4
0603
FAFE
0101
F506
F9F9
EAFE
F8FF
E806
EDFD
FBF9
0110
000C
F703
24EA
F616
0808
E9FE
070F
1705
E1F8
0507
1804
F513
0607
0403
0D12
F810
0A01
BE09
EB20
E303
1A0F
F9F5
1B1F
E2FD
0108
19EB
00EE
1106
0DF6
0F12
FDFB
FE11
DEF7
EB03
F9FA
FC0D
EAF1
F809
080A
F013
E9FE
FEDE
ED08
0BFE
03F3
0C03
00ED
F006
070C
E00B
0DFB
94EF
9012
EB01
0BF0
0413
F608
090B
0F01
E80C
EDF3
F8E2
F200
FF08
19FD
FCEA
EBEB
100B
1306
07DF
0FD6
00F7
E603
11F3
DDF7
FD21
00FA
0407
09F7
FB0E
040F
2902
0B1A
2BF4
D61B
F6FE
01F0
EEF1
03FC
07EE
0400
FC05
F7FD
F3F6
FB05
FAF6
02F9
FDFA
FDFD
FDFE
FE01
FCFF
FDFB
FEFF
FAFD
FEFE
FCF9
FCF7
F5F7
00F7
FC01
FAFC
FCF6
FFF3
02FD
06F2
EE01
02FC
06FE
F4F3
01FD
04F8
FEFE
0403
F6F7
F710
FE00
05FD
F0F2
F3FD
00F9
0B18
00FE
FD04
FFF6
08F1
FBF1
FF04
F6F8
0908
05F7
0101
F605
020A
0506
E7F1
0EF2
E1ED
0806
F4F5
03FC
04FD
F9EE
0801
EE03
F409
FC05
0D02
F80E
FCF6
F4F2
FD07
FBED
F9FB
F1F6
0500
004C
F3E8
F0FF
FD00
0702
0FFF
F2E4
0307
1319
EAFA
0C0B
C3FC
05F4
F3ED
D107
FAFD
FE09
12F6
0EFA
EF0B
0708
FD11
09FE
04FF
FC09
02FD
0003
0105
FA0B
0600
0204
0505
02F8
020F
F9F8
0700
F70E
FD03
FE02
03F9
FAFE
0302
02FB
FC0D
F803
F011
0602
0904
FF01
0C02
0405
FE09
FDF7
0102
00F7
F504
EDF9
0801
F8F8
F601
FDFB
FEF3
01F4
FF00
08EA
FA06
0502
03F9
FFFC
03FE
01F6
F702
EDF8
FEFD
0008
D9FB
06FC
DDEF
0BEC
F500
FEFB
00EE
EEF4
FAFA
09FF
15F8
FA16
EEF5
E1FB
FE0D
D9FC
0DF2
01FF
1AF7
0C05
FAFB
F9F4
08F9
0AFB
FFF1
DEEE
0304
0CFA
0705
F0E8
13F9
0119
2803
25F3
0607
0807
01F4
00E4
F8FD
FBEC
10FE
0107
010B
05FB
0601
FD01
0501
FE05
02FC
FD05
02FB
0600
0503
05FB
0205
0301
0105
FE06
FFFF
0206
FF00
F8FA
0001
0100
FA09
F802
FE0D
01FB
0906
FBFF
0606
04FD
FBFF
FBFE
03FC
0D05
FF0F
F9FF
F8FC
07F0
F610
0407
F814
0800
F0F9
F410
F5F9
FF02
0104
09F8
0803
FFEE
E7FE
03E0
0409
0EF8
0CF6
FF04
0DF5
0404
FD00
FC0E
00F8
0B14
0308
0800
1001
EF0E
FDFA
05FC
FF07
ED05
0905
1500
0AE1
FBF2
EB09
FF03
1207
1605
FAFA
10FB
FFEE
FA06
15FF
040D
07EC
040A
DFFD
14E7
D4F8
18E8
09FC
03FA
EF07
DFF1
0E00
08F1
F306
FAE9
0600
05FA
08F6
1405
0804
0CF5
FC0C
FDFB
0100
F9E9
19F5
F2F6
FF04
17FE
F900
0002
0207
F513
FEF4
05E7
13EE
FA07
14F1
34FD
FAEC
05F0
0900
FCDF
00F8
05FE
0805
FA02
F802
F600
010A
0FFD
F30E
FFFC
EF11
03FA
F7F7
02F0
F402
04FA
0700
16F8
06F0
0EFB
0907
F000
00FC
FFF7
06EC
F6F8
13FD
E8F3
F404
0C06
FBF8
F9F9
0EF5
160B
F4F9
000B
05E4
FB06
01F8
0AFB
FBF9
EEFD
0ADA
FEF0
0CFA
FC06
FDEC
0203
11F9
F000
0B04
EDED
F8FD
FCFC
F8EC
080C
17FF
1FEE
F905
0EFE
0900
FAEE
02FA
E9F6
F606
0FFD
EFFA
0907
12F4
FEFE
00FE
0D0D
F80A
F2FC
D9E2
FFFD
0AED
06E7
FCFE
090F
FE00
21F9
07E9
FD08
ED02
FA00
05E5
05F0
F5FA
E200
D8FB
D6E8
0915
0F48
0703
FE11
F909
0000
0000
0000
0000
0000
0000
0000
0000
0000
0000
0000
0000
0000
0000
0000
0000
0000
0000
0000
0000
0000
0000
0000
0000
0000
0000
0000
0000
0000
0000
0000
0000
0000
0000
0000
0000
0000
0000
0000
0000
0000
0000
0000
0000
0000
0000
0000
0000
0000
0000
0000
0000
0000
0000
0000
0000
0000
0000
0000
0000
0000
0000
0000
0000
0000
0000
0000
0000
0000
0000
0000
0000
0000
0000
0000
0000
0000
0000
0000
0000
0000
0000
0000
0000
0000
0000
0000
0000
0000
0000
0000
0000
0000
0000
0000
0000
0000
0000
0000
0000
0000
0000
0000
0000
0000
0000
0000
0000
0000
0000
0000
0000
0000
0000
0000
0000
0000
0000
0000
0000
0000
0000
0000
0000
0000
0000
0000
0000
0000
0000
0000
0000
0000
0000
0000
0000
0000
0000
0000
0000
0000
0000
0000
0000
0000
0000
0000
0000
0000
0000
0000
0000
0000
0000
0000
0000
0000
0000
0000
0000
0000
0000
0000
0000
0000
0000
0000
0000
0000
0000
0000
0000
0000
0000
0000
0000
0000
0000
0000
0000
0000
0000
0000
0000
0000
0000
0000
0000
0000
0000
0000
0000
0000
0000
0000
0000
0000
0000
0000
0000
0000
0000
0000
0000
0000
0000
0000
0000
0000
0000
0000
0000
0000
0000
0000
0000
0000
0000
0000
0000
0000
0000
0000
0000
0000
0000
0000
0000
0000
0000
0000
0000
0000
0000
0000
0000
0000
0000
0000
0000
0000
0000
0000
0000
0000
0000
0000
0000
0000
0000
0000
0000
0000
0000
0000
0000
0000
0000
0000
0000
0000
0000
0000
0000
0000
0000
0000
0000
0000
0000
0000
0000
0000
0000
0000
0000
0000
0000
0000
0000
0000
0000
0000
0000
0000
0000
0000
0000
0000
0000
0000
0000
0000
0000
0000
0000
0000
0000
0000
0000
0000
0000
0000
0000
0000
0000
0000
0000
0000
0000
0000
0000
0000
0000
0000
0000
0000
0000
0000
0000
0000
0000
0000
0000
0000
0000
0000
0000
0000
0000
0000
0000
0000
0000
0000
0000
0000
0000
0000
0000
0000
0000
0000
0000
0000
0000
0000
0000
0000
0000
0000
0000
0000
0000
0000
0000
0000
0000
0000
0000
0000
0000
0000
0000
0000
0000
0000
0000
0000
0000
0000
0000
0000
0000
0000
0000
0000
0000
0000
0000
0000
0000
0000
0000
0000
0000
0000
0000
0000
0000
0000
0000
0000
0000
0000
0000
0000
0000
0000
0000
0000
0000
0000
0000
0000
0000
0000
0000
0000
0000
0000
0000
0000
0000
0000
0000
0000
0000
0000
0000
0000
0000
0000
0000
0000
0000
0000
0000
0000
0000
0000
0000
0000
0000
0000
0000
0000
0000
0000
0000
0000
0000
0000
0000
0000
0000
0000
0000
0000
0000
0000
0000
0000
0000
0000
0000
0000
0000
0000
0000
0000
0000
0000
0000
0000
0000
0000
0000
0000
0000
0000
0000
0000
0000
0000
0000
0000
0000
0000
0000
0000
0000
0000
0000
0000
0000
0000
0000
0000
0000
0000
0000
0000
0000
0000
0000
0000
0000
0000
0000
0000
0000
0000
0000
0000
0000
0000
0000
0000
0000
0000
0000
0000
0000
0000
0000
0000
0000
0000
0000
0000
0000
0000
0000
0000
0000
0000
0000
0000
0000
0000
0000
0000
0000
0000
0000
0000
0000
0000
0000
0000
0000
0000
0000
0000
0000
0000
0000
0000
0000
0000
0000
0000
0000
0000
0000
0000
0000
0000
0000
0000
0000
0000
0000
0000
0000
0000
0000
0000
0000
0000
0000
0000
0000
0000
0000
0000
0000
0000
0000
0000
0000
0000
0000
0000
0000
0000
0000
0000
0000
0000
0000
0000
0000
0000
0000
0000
0000
0000
0000
0000
0000
0000
0000
0000
0000
0000
0000
0000
0000
0000
0000
0000
0000
0000
0000
0000
0000
0000
0000
0000
0000
0000
0000
0000
0000
0000
0000
0000
0000
0000
0000
0000
0000
0000
0000
0000
0000
0000
0000
0000
0000
0000
0000
0000
0000
0000
0000
0000
0000
0000
0000
0000
0000
0000
0000
0000
0000
0000
0000
0000
0000
0000
0000
0000
0000
0000
0000
0000
0000
0000
0000
0000
0000
0000
0000
0000
0000
0000
0000
0000
0000
0000
0000
0000
0000
0000
0000
0000
0000
0000
0000
0000
0000
0000
0000
0000
0000
0000
0000
0000
0000
0000
0000
0000
0000
0000
0000
0000
0000
0000
0000
0000
0000
0000
0000
0000
0000
0000
0000
0000
0000
0000
0000
0000
0000
0000
0000
0000
0000
0000
0000
0000
0000
0000
0000
0000
0000
0000
0000
0000
0000
0000
0000
0000
0000
0000
0000
0000
0000
0000
0000
0000
0000
0000
0000
0000
0000
0000
0000
0000
0000
0000
0000
0000
0000
0000
0000
0000
0000
0000
0000
0000
0000
0000
0000
0000
0000
0000
0000
0000
0000
0000
0000
0000
0000
0000
0000
0000
0000
0000
0000
0000
0000
0000
0000
0000
0000
0000
0000
0000
0000
0000
0000
0000
0000
0000
0000
0000
0000
0000
0000
0000
0000
0000
0000
0000
0000
0000
0000
0000
0000
0000
0000
0000
0000
0000
0000
0000
0000
0000
0000
0000
0000
0000
0000
0000
0000
0000
0000
0000
0000
0000
0000
0000
0000
0000
0000
0000
0000
0000
0000
0000
0000
0000
0000
0000
0000
0000
0000
0000
0000
0000
0000
0000
0000
0000
0000
0000
0000
0000
0000
0000
0000
0000
0000
0000
0000
0000
0000
0000
0000
0000
0000
0000
0000
0000
0000
0000
0000
0000
0000
0000
0000
0000
0000
0000
0000
0000
0000
0000
0000
0000
0000
0000
0000
0000
0000
0000
0000
0000
0000
0000
0000
0000
0000
0000
0000
0000
0000
0000
0000
0000
0000
0000
0000
0000
0000
0000
0000
0000
0000
0000
0000
0000
0000
0000
0000
0000
0000
0000
0000
0000
0000
0000
0000
0000
0000
0000
0000
0000
0000
0000
0000
0000
0000
0000
0000
0000
0000
0000
0000
0000
0000
0000
0000
0000
0000
0000
0000
0000
0000
0000
0000
0000
0000
0000
0000
0000
0000
0000
0000
0000
0000
0000
0000
0000
0000
0000
0000
0000
0000
0000
0000
0000
0000
0000
0000
0000
0000
0000
0000
0000
0000
0000
0000
0000
0000
0000
0000
0000
0000
0000
0000
0000
0000
0000
0000
0000
0000
0000
0000
0000
0000
0000
0000
0000
0000
0000
0000
0000
0000
0000
0000
0000
0000
0000
0000
0000
0000
0000
0000
0000
0000
0000
0000
0000
0000
0000
0000
0000
0000
0000
0000
0000
0000
0000
0000
0000
0000
0000
0000
0000
0000
0000
0000
0000
0000
0000
0000
0000
0000
0000
0000
0000
0000
0000
0000
0000
0000
0000
0000
0000
0000
0000
0000
0000
0000
0000
0000
0000
0000
0000
0000
0000
0000
0000
0000
0000
0000
0000
0000
0000
0000
0000
0000
0000
0000
0000
0000
0000
0000
0000
0000
0000
0000
0000
0000
0000
0000
0000
0000
0000
0000
0000
0000
0000
0000
0000
0000
0000
0000
0000
0000
0000
0000
0000
0000
0000
0000
0000
0000
0000
0000
0000
0000
0000
0000
0000
0000
0000
0000
0000
0000
0000
0000
0000
0000
0000
0000
0000
0000
0000
0000
0000
0000
0000
0000
0000
0000
0000
0000
0000
0000
0000
0000
0000
0000
0000
0000
0000
0000
0000
0000
0000
0000
0000
0000
0000
0000
0000
0000
0000
0000
0000
0000
0000
0000
0000
0000
0000
0000
0000
0000
0000
0000
0000
0000
0000
0000
0000
0000
0000
0000
0000
0000
0000
0000
0000
0000
0000
0000
0000
0000
0000
0000
0000
0000
0000
0000
0000
0000
0000
0000
0000
0000
0000
0000
0000
0000
0000
0000
0000
0000
0000
0000
0000
0000
0000
0000
0000
0000
0000
0000
0000
0000
0000
0000
0000
0000
0000
0000
0000
0000
0000
0000
0000
0000
0000
0000
0000
0000
0000
0000
0000
0000
0000
0000
0000
0000
0000
0000
0000
0000
0000
0000
0000
0000
0000
0000
0000
0000
0000
0000
0000
0000
0000
0000
0000
0000
0000
0000
0000
0000
0000
0000
0000
0000
0000
0000
0000
0000
0000
0000
0000
0000
0000
0000
0000
0000
0000
0000
0000
0000
0000
0000
0000
0000
0000
0000
0000
0000
0000
0000
0000
0000
0000
0000
0000
0000
0000
0000
0000
0000
0000
0000
0000
0000
0000
0000
0000
0000
0000
0000
0000
0000
0000
0000
0000
0000
0000
0000
0000
0000
0000
0000
0000
0000
0000
0000
0000
0000
0000
0000
0000
0000
0000
0000
0000
0000
0000
0000
0000
0000
0000
0000
0000
0000
0000
0000
0000
0000
0000
0000
0000
0000
0000
0000
0000
0000
0000
0000
0000
0000
0000
0000
0000
0000
0000
0000
0000
0000
0000
0000
0000
0000
0000
0000
0000
0000
0000
0000
0000
0000
0000
0000
0000
0000
0000
0000
0000
0000
0000
0000
0000
0000
0000
0000
0000
0000
0000
0000
0000
0000
0000
0000
0000
0000
0000
0000
0000
0000
0000
0000
0000
0000
0000
0000
0000
0000
0000
0000
0000
0000
0000
0000
0000
0000
0000
0000
0000
0000
0000
0000
0000
0000
0000
0000
0000
0000
0000
0000
0000
0000
0000
0000
0000
0000
0000
0000
0000
0000
0000
0000
0000
0000
0000
0000
0000
0000
0000
0000
0000
0000
0000
0000
0000
0000
0000
0000
0000
0000
0000
0000
0000
0000
0000
0000
0000
0000
0000
0000
0000
0000
0000
0000
0000
0000
0000
0000
0000
0000
0000
0000
0000
0000
0000
0000
0000
0000
0000
0000
0000
0000
0000
0000
0000
0000
0000
0000
0000
0000
0000
0000
0000
0000
0000
0000
0000
0000
0000
0000
0000
0000
0000
0000
0000
0000
0000
0000
0000
0000
0000
0000
0000
0000
0000
0000
0000
0000
0000
0000
0000
0000
0000
0000
0000
0000
0000
0000
0000
0000
0000
0000
0000
0000
0000
0000
0000
0000
0000
0000
0000
0000
0000
0000
0000
0000
0000
0000
0000
0000
0000
0000
0000
0000
0000
0000
0000
0000
0000
0000
0000
0000
0000
0000
0000
0000
0000
0000
0000
0000
0000
0000
0000
0000
0000
0000
0000
0000
0000
0000
0000
0000
0000
0000
0000
0000
0000
0000
0000
0000
0000
0000
0000
0000
0000
0000
0000
0000
0000
0000
0000
0000
0000
0000
0000
0000
0000
0000
0000
0000
0000
0000
0000
0000
0000
0000
0000
0000
0000
0000
0000
0000
0000
0000
0000
0000
0000
0000
0000
0000
0000
0000
0000
0000
0000
0000
0000
0000
0000
0000
0000
0000
0000
0000
0000
0000
0000
0000
0000
0000
0000
0000
0000
0000
0000
0000
0000
0000
0000
0000
0000
0000
0000
0000
0000
0000
0000
0000
0000
0000
0000
0000
0000
0000
0000
0000
0000
0000
0000
0000
0000
0000
0000
0000
0000
0000
0000
0000
0000
0000
0000
0000
0000
0000
0000
0000
0000
0000
0000
0000
0000
0000
0000
0000
0000
0000
0000
0000
0000
0000
0000
0000
0000
0000
0000
0000
0000
0000
0000
0000
0000
0000
0000
0000
0000
0000
0000
0000
0000
0000
0000
0000
0000
0000
0000
0000
0000
0000
0000
0000
0000
0000
0000
0000
0000
0000
0000
0000
0000
0000
0000
0000
0000
0000
0000
0000
0000
0000
0000
0000
0000
0000
0000
0000
0000
0000
0000
0000
0000
0000
0000
0000
0000
0000
0000
0000
0000
0000
0000
0000
0000
0000
0000
0000
0000
0000
0000
0000
0000
0000
0000
0000
0000
0000
0000
0000
0000
0000
0000
0000
0000
0000
0000
0000
0000
0000
0000
0000
0000
0000
0000
0000
0000
0000
0000
0000
0000
0000
0000
0000
0000
0000
0000
0000
0000
0000
0000
0000
0000
0000
0000
0000
0000
0000
0000
0000
0000
0000
0000
0000
0000
0000
0000
0000
0000
0000
0000
0000
0000
0000
0000
0000
0000
0000
0000
0000
0000
0000
0000
0000
0000
0000
0000
0000
0000
0000
0000
0000
0000
0000
0000
0000
0000
0000
0000
0000
0000
0000
0000
0000
0000
0000
0000
0000
0000
0000
0000
0000
0000
0000
0000
0000
0000
0000
0000
0000
0000
0000
0000
0000
0000
0000
0000
0000
0000
0000
0000
0000
0000
0000
0000
0000
0000
0000
0000
0000
0000
0000
0000
0000
0000
0000
0000
0000
0000
0000
0000
0000
0000
0000
0000
0000
0000
0000
0000
0000
0000
0000
0000
0000
0000
0000
0000
0000
0000
0000
0000
0000
0000
0000
0000
0000
0000
0000
0000
0000
0000
0000
0000
0000
0000
0000
0000
0000
0000
0000
0000
0000
0000
0000
0000
0000
0000
0000
0000
0000
0000
0000
0000
0000
0000
0000
0000
0000
0000
0000
0000
0000
0000
0000
0000
0000
0000
0000
0000
0000
0000
0000
0000
0000
0000
0000
0000
0000
0000
0000
0000
0000
0000
0000
0000
0000
0000
0000
0000
0000
0000
0000
0000
0000
0000
0000
0000
0000
0000
0000
0000
0000
0000
0000
0000
0000
0000
0000
0000
0000
0000
0000
0000
0000
0000
0000
0000
0000
0000
0000
0000
0000
0000
0000
0000
0000
0000
0000
0000
0000
0000
0000
0000
0000
0000
0000
0000
0000
0000
0000
0000
0000
0000
0000
0000
0000
0000
0000
0000
0000
0000
0000
0000
0000
0000
0000
0000
0000
0000
0000
0000
0000
0000
0000
0000
0000
0000
0000
0000
0000
0000
0000
0000
0000
0000
0000
0000
0000
0000
0000
0000
0000
0000
0000
0000
0000
0000
0000
0000
0000
0000
0000
0000
0000
0000
0000
0000
0000
0000
0000
0000
0000
0000
0000
0000
0000
0000
0000
0000
0000
0000
0000
0000
0000
0000
0000
0000
0000
0000
0000
0000
0000
0000
0000
0000
0000
0000
0000
0000
0000
0000
0000
0000
0000
0000
0000
0000
0000
0000
0000
0000
0000
0000
0000
0000
0000
0000
0000
0000
0000
0000
0000
0000
0000
0000
0000
0000
0000
0000
0000
0000
0000
0000
0000
0000
0000
0000
0000
0000
0000
0000
0000
0000
0000
0000
0000
0000
0000
0000
0000
0000
0000
0000
0000
0000
0000
0000
0000
0000
0000
0000
0000
0000
0000
0000
0000
0000
0000
0000
0000
D5E6
12FC
0613
0512
F400
03F4
1013
F034
0AD7
E11A
07FB
070A
FF09
E0EA
3AFE
F8F3
F7F2
F321
F0DC
ECED
102A
F8E9
E2D8
D618
F502
2404
18EF
DC0B
171F
0F1D
D50E
FF08
FED4
F1EF
16FE
2CEE
01FA
ECF1
E1FD
E70F
E31E
0C13
FF1E
0402
E8FD
FDD5
EEF8
1916
E415
2322
14F7
1210
06FE
19FF
FF03
37F1
0E0E
13DC
0412
D6FD
1F09
06F8
E70D
E5E0
C4E4
E609
B6EC
1FDC
06FB
FFE9
2607
0509
F90C
E2EC
F9F6
001A
FDFE
E6F0
FC0F
F6E6
0B10
0DF6
F212
E9F2
F4DA
1601
FD00
FBF6
051A
E00C
09FD
35DD
F010
1D06
FE07
1415
E4D3
14FA
F2F6
0ED4
1CD8
ECD5
FA05
1927
D80A
FD1F
E315
080B
D800
FC02
2620
0D06
E407
F919
0A0A
FAF4
F10A
E2FD
18EB
240D
00F1
05FB
02F0
1B21
000D
CE00
F8F4
0F09
F2FE
070A
E2FC
0EEF
FC03
0515
F705
EE10
E8FE
0910
0BFE
F517
FA08
EAFF
F100
FC05
0309
03D5
2204
DA07
0215
0905
23F5
FD07
EAF0
06F6
F105
F30F
FFE9
18F9
212A
23F9
0F0D
0102
2604
0EFF
EFF5
E21F
0704
150D
FF2A
F2FC
FE26
01F2
1202
00F9
0B06
070B
F8F8
1FF0
05FF
EA0F
F60B
EB06
FA1A
05F9
02F7
15F0
0C1A
EFDE
0BF2
0729
EF05
F10E
F6F7
F2FB
0AF8
E5F5
EFF0
01EF
F1EB
08FE
00BD
0614
E3F5
E6F5
FE0C
FA04
FE09
09FF
FA02
F8E0
04F2
09E5
1003
04EE
EF05
06F8
01FC
E700
FBE5
FF05
09FB
F5E3
03FC
FEFE
07EE
120A
8CE9
0BFD
03FA
1506
0515
19E4
0FED
FDEC
1DEC
14FF
FC1A
0134
32D4
DBFE
11E8
0407
DCF2
FCFC
CE1A
F913
1CF8
E408
04EE
041C
E704
1CD8
EA07
17F6
0201
2B04
E3F2
060B
B6D0
17E7
2724
1907
1910
FDFC
1425
F1EC
1303
EAF7
F31C
0618
FDE3
FB0B
F4BE
0EE4
0B01
050A
0E04
0921
18F5
F71E
0705
DD09
F3F1
0CE3
04FC
1C12
0207
0605
1B01
20F3
0CEB
F710
FA15
D12B
2F28
D506
E402
C0E5
FFFF
05DD
0801
1509
01EB
FEF9
060C
E008
07D9
15FC
EAEF
1416
DAF1
D901
18D1
0504
EBF7
F825
1C28
0FEB
27C8
200E
EEF8
2FEC
D10A
10E4
1FE2
320A
F105
E2E0
EEFD
0EFA
0BFE
1403
D215
FF0A
0B03
F6E2
1912
F60C
0DED
FEF3
1AED
F50A
31DD
E336
C4FC
1013
03F0
DC16
DAF7
0401
0DE5
05EB
2021
1104
81EE
D5F9
EFFD
F908
09F7
00F8
28C3
F515
E5FA
081E
E606
1017
DCC4
F70E
FF18
E00F
ECFA
0E17
0911
0F15
F3D9
1607
EA07
1201
F807
DEFA
CC0A
D605
140E
01EC
E121
0500
01DA
E64D
2010
000F
F6EA
01FB
FE06
E002
1B02
0D24
0AFA
E814
FFE5
01E9
0F01
00FD
E0E5
0114
07FE
0813
D9EC
2705
EA0F
EB0D
D305
D209
EAF0
1C2A
1F03
1BF4
E70D
F807
ECFB
D906
09EE
09F3
E2EE
DFE4
05F3
F7EB
FBEB
000F
C507
01FD
E0EE
0E1A
11DB
EB0A
0DE9
0605
FD01
FFF2
EAFD
1E00
F9FC
F708
05FD
0CE1
060F
1B06
1409
2D01
09F9
0EFC
C638
03DF
EFE8
F5E5
1022
07D3
F5F9
1E04
29DE
0CEB
02E3
E4DD
040E
E61D
E40F
19FE
EFF0
F5E0
DE2C
0624
24F1
0EE4
E2EE
050B
F538
1E13
FA3E
E4FC
04E4
F1EB
23FD
25FD
0704
00E2
F9F0
0917
FB18
27E7
FFD1
11C9
E1C2
0EFB
01F6
0722
0CF9
F607
0112
E909
04EA
13F1
E701
0909
F8ED
0709
0FF2
07F8
04F4
F80C
171C
FFF4
FDDB
F3CE
EEF9
F80C
EF1B
1012
0202
FB02
FC16
E3EB
FF12
EE0C
0F02
FF0C
18FA
100C
F6FA
0B1E
0513
2007
0CF3
EE01
0803
E804
FA03
0D04
F2EF
D50F
1C0B
0A01
DA20
E82B
FB07
FD0E
07EB
F90F
EA0A
1AFA
0507
EF03
F6E8
0A22
0D2D
0108
0C1E
0518
1B05
F406
FC0C
F2F7
0505
1300
0310
FCFF
03E2
D41A
1704
0415
0503
EEEA
F515
E2F6
F200
1118
02F7
EF05
FFE5
0EF5
F80E
2E06
FA01
FCFB
1F02
DF0F
0A17
F4F9
1B08
1609
E6E7
13F9
21F7
F607
10FA
FFE0
11F2
F70F
E10C
0016
F5ED
150E
070A
CFFE
FA14
10F1
0A0E
0B18
1C02
C0F2
FB09
E6F2
0DB8
FC30
07EF
D414
0709
0CE9
F422
E2FF
FCF2
0212
F1E8
0AF0
1AF6
110F
06C6
02D3
F825
F804
20A8
DE0A
0C26
37F8
02FE
CDE6
E0E2
25EE
EB02
FAF5
F021
1B1D
EFF7
F70B
09BE
E409
13CF
ED0A
EBE5
1DF8
EE10
F40C
F8F6
FD4A
0C01
E216
0813
EEF6
0411
17DF
FF15
F90C
0203
00FD
1E20
FDFD
0DD4
1DFA
1CEE
F7F1
FCF1
F621
051E
FA02
F6F1
06F5
24E7
3BE1
02EF
E402
DDF9
E41C
F3F8
2B0B
F115
F9F8
F20E
08DF
02F4
ECEB
0C0B
EAF7
32F3
E717
E7F4
FE0D
0C20
0516
EEDC
F115
19B5
35E6
0F0D
FAF8
06D9
0617
D10A
F5F2
13E2
E600
12F8
1A01
EF07
21F8
FBF9
130D
0A2E
FC01
0A0C
F112
EA00
FBED
FEFD
0C03
0814
1FFB
21E9
C90B
1110
F616
F60A
FCF8
05FB
E9FD
DCD7
0AFF
FDF6
1012
03E3
0304
31EA
FD20
00FB
E109
1FFB
0500
E7EF
00F7
0321
07EE
0A0B
F5DF
130A
F7F5
DA03
0015
E7ED
03DE
1908
E518
F513
BBF0
EEDC
FDEB
D2F5
E903
BF28
FA12
100A
32F7
FC05
F9FC
F30A
13F3
010A
0C05
FF08
FAF9
051D
02F4
0A01
0CF6
00FC
04FC
00EE
0707
FF04
05FD
FC08
F804
F000
FD15
FFF8
0B07
F6FF
050D
080C
F6F9
0807
0303
0203
FC0D
D70C
2310
F422
0829
0CFB
17E1
FE07
F2FA
14F3
1502
21F1
FCE7
0D00
0E0A
0111
E3EF
23E6
DC08
F90C
0AF3
0CB9
00F8
0FE8
F411
E30A
DBDE
EDFD
0307
B509
EDF0
0F0C
F2E8
E3E9
0FF8
1203
EE14
EC05
1604
1006
E60F
13CC
DE08
06F3
E9F0
E505
05E3
020D
F3F4
14F9
FBE0
FBD6
0509
15F8
06EC
EED4
E10E
01F5
0A11
01EC
F803
05FE
1112
03F9
0B04
02F8
EEF2
1EFE
EA02
0201
07F4
FCE4
F20F
07F1
03F5
F700
FC04
EE0D
0E03
FCF3
ECFC
0B06
F7F7
0AE8
FBF8
02F9
0EEB
F004
EBFF
03F3
F10C
03D6
E708
F20C
F1FB
0AF6
03FF
03F3
06EC
29EE
032D
06E9
0C0C
0BE6
F8BD
25EB
E71B
0518
1425
00E4
FD01
07F0
FCEF
F9D6
DFEF
FBE5
0814
F218
06E9
EC0D
27FF
0DF6
B6FD
B8FB
1210
0DF2
05FF
040C
EFDB
F524
0B19
04F7
15D8
02DE
0228
F9F6
1DF8
E80E
E4F6
ECED
F406
E0E1
D105
E215
1403
0FEF
F8D9
1916
0CF9
DBC6
07FE
1002
02EE
1606
CFCE
0A03
1506
2B00
1F05
08FB
1023
1E04
1514
35FC
136D
FAEA
C6FF
D7F4
EF26
110A
0900
07EB
0CF3
0EE4
DFDE
21F4
E92C
11EF
EBFC
F014
F600
DD13
061B
0BFD
04E5
0BAC
FBF5
0615
FEC5
1337
E9F5
FD10
F5E2
0D26
EEDF
C512
D443
1107
CEF6
09E7
D721
3E12
F7FA
1401
F700
F0E9
F80E
14E8
D806
101C
01E0
08C4
D614
D91F
0917
E3E6
E8E0
F401
311C
2A11
F4E0
D30F
EF3B
10DA
E2E8
FA12
0915
E604
08F5
1217
1709
040E
02EE
FBFE
05EC
1006
23ED
08FC
0D04
E0FE
F00B
0314
0814
00F0
0512
CAFC
F510
0D0E
0405
FD23
F0FE
F500
F5F1
0303
0210
FD08
ED0D
E80B
0104
F213
0522
FCEF
C9E8
0510
0AFE
FD1B
13F5
26DB
06F9
1EEF
1011
0C13
F2EF
15DF
D4FE
E91B
FDF7
16B4
00E1
FB08
0EE6
EC11
D2E3
F8F5
0D05
D019
F4F9
241E
FFF7
000B
FB20
230C
0BD8
1A0C
31F5
F108
09F6
29F2
1626
F0FE
E9E3
14F7
DCEC
F80E
05F8
FAFA
EE02
D8FD
1FD6
DAE8
02FC
16F8
0F03
ED17
1B28
0503
0E20
0416
05F0
1609
E519
FCEA
0F0A
CF18
E9D7
ED16
EF03
3518
1401
FE1E
F001
240C
15F6
2005
23FD
EC0F
CCFB
0C26
04EF
0CFB
0A0F
F0F8
E804
F0E4
3A1B
0016
DFED
E93A
C219
00F2
2E02
FCCD
DCFB
06FC
FE0D
D0EB
16F0
050D
E81B
F7D0
DF02
EE18
F9FE
E103
0902
CEFB
102E
2DED
F515
2507
E103
19FC
1DE0
FA10
0F14
FDD1
0E13
08E9
E30A
06FD
0F1E
0714
D2F4
08F7
EE08
F7FF
F300
F4E6
D8FE
E0F3
EAE8
F303
05FE
F7CD
00FE
EFF3
F017
FF05
0815
FE00
080A
FDF9
F604
EDF6
14F2
110B
04F0
EFF6
17FA
03FC
F00F
F9E6
0214
17FC
FEEB
F6FF
0CF9
2400
1CFA
53DC
011C
F6E2
02F0
11D9
F8D0
14D0
C301
FB06
0615
DBDF
4205
25F2
E2E8
05D2
00E3
2EF7
F602
370B
FB08
D4EA
321D
01FB
B714
BF2F
F40B
FB12
EA18
1FD1
081B
0CEA
D10A
A5EB
1820
0628
1FC6
0AF7
FA11
04EC
F5F4
16FE
FAE3
1628
0A06
0BDB
DADC
EEEF
02FF
06F3
07F3
163C
1323
2421
DD15
F5F0
252C
EFDF
F3FC
D2FD
E20A
070D
25E3
F412
EF0F
BB01
EF04
101B
F612
E20F
0524
FF36
25E3
0FFA
FBF5
0DF5
E515
DEFD
1418
F225
F0E7
E8FB
12F0
E404
D507
1F05
FBF1
E4FF
3E1C
0FF7
30F9
F100
0103
DE2C
D10C
12EF
F8D6
14D8
07BE
0AF6
3318
06FB
F6DF
0312
F5FF
F9EF
FA2A
ECF9
F5FD
2FFD
10E7
05FE
1412
DB12
27C4
D43C
15FF
17DD
F8E4
0410
09E0
DD38
060A
EEEB
D224
F416
F3E5
DCEB
070D
E51E
0902
1301
EAF9
EE0B
02EA
ECE2
1AF1
1F09
00F5
17FF
FCE4
1607
F013
FD0C
13DC
F1E9
F6F0
0310
F2DA
FE22
EBC6
F6F1
0FF8
0A17
2908
040E
07E5
EB2F
CCE9
02F4
FEF9
1AF9
EC0D
FAD1
0E00
F7DE
060B
F6E4
EF0C
FD07
F9F9
DA0F
EAED
F80D
1AEC
E312
02EE
18F0
FBF9
0402
FF00
0510
F8EE
08DD
0E03
F7F1
E8F0
14F3
1203
DAFB
FB00
0426
D3FD
18FE
05E5
FA0C
EAEA
FD01
FAEE
1436
F610
0016
11D9
0FF6
F0F5
F3F6
9325
0217
01E7
F612
19DF
EA18
EF17
2305
DDED
1502
E6F3
1DE4
02FB
0CF9
F416
0BEE
04FA
ECFA
FB19
17EA
190B
FC0B
ECDC
1A07
0602
0008
16D1
0D0C
F5FF
0EFD
FA16
1E0E
E707
21F3
0C00
FA11
160F
1005
F404
00FD
F713
1BDF
E8D0
EB06
13FC
FCEF
0515
E6F5
01DE
C80F
F922
D5F5
0606
F9FE
F3FE
11EE
DCFA
1119
E2F7
1604
FDEA
0804
DD15
F305
05E7
0917
0BE1
FEF2
FDF1
EC0F
DBFE
FFFC
F00C
EF0E
EE2E
25F6
2E08
FEFF
FE04
FFEB
0E2E
FAFD
07EB
ED0D
DC0B
F6E0
FFF5
010E
1EFE
F6E5
FCFF
F7EB
F2F4
FE01
FCF8
FF06
0BF0
FB14
07FD
00E6
F6FE
04FE
00EB
FCE7
0500
FC01
0AFC
F9FE
F1FA
07F0
FFD4
F1F7
E2FA
1FF8
F8F9
081F
ED0B
000C
EAE4
1429
DFFB
280C
EAE2
0FEE
13DE
05F8
20F1
FD00
D6FC
00F3
0E20
05EE
F614
F423
EE0F
F6F4
E72C
F31E
F935
1B1A
1300
EFEF
F31D
E0F1
1400
10F2
03F0
010D
03FF
06F0
0308
EBFA
EBF5
28F7
121B
FC09
0202
D711
01EA
E9E4
040D
04E1
0108
0CE9
0EFE
0DF2
11FB
E6F5
2F00
FD08
1DF5
F4F1
C00C
1202
FFDB
DC09
F1DD
10FC
25B6
0A19
19FB
1AE2
D13A
F702
1D10
1C1A
08ED
D3FF
1820
D91E
E1E4
F903
43DB
1204
1CF7
01E7
F516
F9B2
F4EF
00F6
260D
0005
4F0B
1CD2
F104
18FA
19D6
EBFF
D531
E73A
F507
0E1E
31E7
03FD
DD03
0D2C
CEE3
15ED
F809
DFF6
F61C
E609
F3C9
D1D2
2303
0CD6
EDEE
E80D
F7E5
F7DF
ECE4
1707
0F09
FB02
2EF0
21F3
0F18
C706
FA07
F927
FE0C
0206
0803
F712
17FE
0904
060E
FD04
0B02
0717
FFF2
0C0E
1204
0100
10FF
F702
FF03
0809
0E0E
0C12
0419
F803
F813
0205
F2FA
07F5
08F1
0613
FE00
FEF9
1710
06F8
0B03
1A18
FFF5
FFDE
E5FF
FC0F
FB02
1703
FBEE
F327
FFBE
0C0C
32F7
FEF9
1312
120C
E719
1BFF
0810
FB16
F918
E1FB
E115
FF10
F806
05E6
DAFE
FF0D
1502
01D9
0311
D1ED
1615
FF1F
FBFD
FDFB
1104
F406
F405
1BFE
1512
FD17
140D
041D
0E00
F316
F911
FD00
0200
E7E7
F3FB
FE12
0FFE
FD0B
0607
090D
02F9
1014
FFF8
2113
110D
0B04
F20C
F4F6
1105
09F8
23EE
3AD1
3713
F10B
F106
F404
EFF6
0AFC
11F4
E10C
F2F5
EF0D
0FDB
0ACF
03E3
251B
EA0F
2804
E2F4
E90C
0008
0717
0310
F8CE
DF2F
01ED
06E2
2229
F0FC
06E9
F410
FB02
FAFC
B612
F8F1
1308
D628
FCFF
0032
DF2D
1AE7
F2E6
0DD8
00EF
F20B
03FE
1A27
F723
08F6
07ED
1A02
E706
F9F0
17EB
E701
070B
38EB
26FB
1307
0ADF
0DEB
EB1C
D1F5
FED7
F500
F9F1
EB02
00FD
F9F9
01FF
FF10
F6D2
E706
F6F1
FEF6
0612
0704
11E9
FEF7
05FA
F303
F9F3
EEDF
0713
09F9
EEFA
FF0D
F6FC
F105
FEDC
F105
0F0B
F6ED
FFF7
11FC
FC08
F4F0
1BF6
2217
F714
FDF8
0818
1AFB
EA0E
03CF
FE01
F916
0205
F304
0319
EFF5
05F7
FF1A
0806
1201
F803
FDED
0108
CFFB
1009
FAEF
FF1E
08F9
1014
0011
09D9
0CF6
04F7
100A
07E7
FBFD
E6F0
FE23
24FD
D51A
EDDC
0C10
0AE2
32FE
E305
FCFD
4CCC
08F7
06D0
08DF
E2ED
1416
1108
04E5
DCE8
1216
1EF9
3EE7
CD02
E71D
2314
29C8
E118
F1FE
0206
13FD
A2FC
FC10
10FB
D812
F512
EDEC
F921
EF0E
1100
191F
D30F
010F
EDCA
FBF4
E7F4
E608
FFF3
ED03
EF12
FC11
0DF0
2903
CB15
FA1B
FCF6
D100
F018
010B
2701
1505
0D00
0419
EA17
FBD4
FBFA
1AC3
F903
DEFD
1616
EFF4
0FFD
FBDE
FCF5
0CF8
FF06
C22C
0B07
1208
0206
FDF6
F440
F00A
0EF7
040B
EEF7
D628
081D
1C05
09F3
F611
FDB5
EBC4
0B1F
291E
FC37
12BE
0502
0037
FFFF
07E8
05EC
EFF9
EDF7
FEE4
DAE2
E7EF
EC1E
F80D
F5FD
14EB
0905
FCE1
ED27
0F00
01ED
FFF8
05FE
B9E3
FB27
1203
3102
20ED
00AC
F9DB
E7E2
09E4
C11C
F003
FF09
0EFF
1203
041E
1BE4
05D6
04F8
1424
EE09
06F2
0C13
0B1A
FC07
E905
FC19
F008
DB25
161A
10C6
1C0E
ED10
E1F5
2EE8
F9F0
0BE3
EC38
F9CD
D0C4
1B2A
F908
CFD9
C627
02F1
EC0E
0312
151F
2DF9
CAE1
F5F3
FAEF
2402
FC16
29BC
0919
F3DD
13BE
DF1F
FFF9
02F7
FE06
E6E7
1AF1
1212
30F6
EF1E
0AE8
F5DF
10E5
E6FD
D715
0106
0207
01FF
0701
0007
FF0E
FA00
FEFD
FDFF
05F6
0303
0D04
06FC
FEFE
06FC
0704
0009
08FA
F8FD
FBF7
FCF3
FC0A
FAFC
0203
FB00
0307
0903
F8F8
FB00
0609
FAFF
F90B
0E01
FCFE
49F6
FF20
06FA
F805
1910
E62C
0AF4
F815
FC1C
03D8
FC10
DFE8
F612
F309
DEED
F507
DCEB
F8FF
FAF2
061E
14FB
C5DF
03E6
1AFD
DA01
09EA
B611
FBF7
D4F5
1106
FA10
E6FC
D9CA
F60A
11EF
FDEE
FF0E
16F9
0517
F4F4
F012
F917
EBF9
E522
C7EF
0610
FDF8
F1F0
FA14
E304
E7E4
EC1B
2126
F6EA
E9E3
F50E
FF14
29E8
C6E9
DD07
F8F9
F10D
BCEA
F508
D3EB
F3E4
0E01
0815
09FF
02E8
EFFA
F2E0
E4E4
171F
EE02
F5FA
20EC
0DF6
3CE6
06EE
C0DF
1109
FC0F
0EF6
EFF1
190E
EAF8
060D
F7E6
19F2
1413
FA43
030E
33DD
0821
0119
CBF8
E7C8
F62B
E40C
0704
10F8
F415
F9DF
0504
0B09
040E
0E27
EF0D
F307
1000
17FD
FE08
F70F
FDEA
07F1
E90F
F111
12F7
A7EB
EBE2
1306
12E6
1511
F3C8
18E2
0E1B
F6F5
1508
1DE5
FAE9
431A
1011
E8DF
FF17
E9F8
D50E
0B05
E509
F7CD
DC08
1603
0904
0DFE
11F9
FA31
BF1C
0E07
020C
E6F5
F80E
BEEB
D601
EBD6
1813
0B3A
1AFD
19DE
FB08
FAFB
23FD
1416
E7D9
EEF4
040A
08E3
F811
070A
F81B
1008
FDEB
1FEA
130F
EE15
0709
1A1E
F2F9
E60C
EEBF
DF0C
1008
0912
FEE1
0B02
3F0D
F3F4
EBFF
FB1C
DF06
FE07
F402
E410
F317
0C0C
E2D2
FF20
FAFD
030F
EE04
3D00
17F2
0E04
F401
EDDD
F3F5
FB0C
052C
F7E3
07F7
CE12
D611
1A14
E838
0C0D
1C34
F7A8
C8DC
F4D7
F73B
DB1E
0D27
1EC8
E1FF
E000
FEB6
08FA
052E
12F8
1BED
E504
032B
F0FF
12FF
09FB
11F8
0B1B
F4FC
9033
01ED
00C8
EC15
0AFA
F72A
0534
30F4
FEF2
0E08
02F5
E9E4
17FA
00F1
F732
F811
29E2
12FA
13E5
ACF1
0003
F60A
100F
FFF2
1801
FA11
EDE6
1116
17F3
F509
0B08
F7D9
04E1
E100
0A0A
E8F5
EDF6
F323
FE0B
FFE7
0CFF
C206
0908
F2FA
C9E2
F8F9
0319
0308
090B
E0FA
F500
DC12
0BD6
11D6
ECE7
FD08
0AFC
F217
ED0B
0C04
06FB
15EF
E5ED
F3F7
D506
010F
3DFF
1007
F5EA
F311
EEF9
F305
F7DB
0AF0
F3FF
F81D
22F8
000A
0DD7
FAF9
1730
0F0D
0A13
F9FE
FB30
131B
FC12
F9FC
0BEE
01FB
E8F0
090F
0606
EE19
F308
E8F8
F20B
02E2
EF12
F8FF
070C
FF16
0005
06FC
07F9
F713
02F1
01F7
F5E8
F8ED
010C
0504
FD06
FF07
000A
0605
1101
0911
E80C
06F7
001B
FF1D
0AFD
07F6
0E13
0DFC
00FA
12FD
0714
0502
0515
FA15
0601
FAF6
040B
1102
F9E9
09F9
0DFB
110C
10FE
000E
1412
F211
03F8
180D
030B
EF06
EEED
F800
1305
F101
07E3
13E7
E601
EAFC
F3F4
F30C
E6EF
DBF2
0701
EAE5
03DF
1D01
EAF5
1221
11F7
FD03
EAF9
00E4
12FB
FFE9
DE06
0DDF
F4FB
E82C
FFED
1203
0706
18F5
FD06
0A11
E9EB
0EF7
E4E8
0709
D100
D1FD
08F0
1B00
162D
FFDB
20EF
FEDC
F210
E70F
04FF
1603
ECE4
01E2
FBDF
F6E9
004E
2AFF
0D1C
10C0
11F4
00D9
DA17
35F6
1BD1
E00C
1FEE
05C5
09FD
EE0C
02E7
F7E2
1F06
0708
03E5
EAD2
14F5
3718
2BE4
EB05
1C0D
1D12
D51D
F2D4
E2ED
F8FC
FFED
F0DE
17F4
F81C
E305
DF02
F9DD
F205
DD17
F713
0D14
FE26
07D7
0EFE
F300
F904
F3FF
2E12
D0E1
EC0D
1805
FBDF
0DF2
F0F0
CEFC
1602
1312
14EF
FC1C
B521
F0FD
DFF8
05FF
0FDD
ED1B
12EE
04EA
1A0A
1017
F0F3
E5F0
C912
EF13
DCFA
E815
0711
0DD4
1BF4
0804
0AFE
F2F0
07F8
0110
10EF
EC0F
FD0D
A002
0EDF
0EF0
FD1F
06DE
F501
FAFB
1DEF
FB11
0707
E6E5
F618
14F3
F1E2
030E
FF03
2017
07F0
0602
03DF
1BF0
1A0E
0308
24F6
E523
F301
090C
FD25
2714
CB1C
0DF9
32F6
0E0D
E516
2101
16CB
1B13
FE01
F305
1725
2507
F1C4
08FC
B0E2
B1D8
DAFF
1D18
DDFF
EBFB
F310
1A13
C813
EB21
0FF2
E204
F9F5
07F8
170B
F3F8
1111
0B03
12E6
EBE4
130E
F0F9
F3EF
EBF1
DEFA
D304
E5FE
10F5
1420
F6E1
E710
E7F7
FAFD
37F3
E7F7
14FA
F60E
1DE3
F415
FCFB
1301
F3E0
1816
10F5
F9EB
07E9
06DA
F302
E510
FCFE
10F7
F1F3
F4FD
0CE9
F10B
0C08
00D8
0EE1
D302
FFF2
F30C
F5FB
0612
C5F8
DE01
F904
FDF4
E405
02FF
03F4
02DC
2608
022C
E916
04FC
012B
0DFA
F6FF
1A0E
08DD
F40C
0C23
E2EE
05FA
1D10
1AF8
2EF0
08E7
F117
F710
F2AC
10ED
F5C6
1AF1
15E4
F0D9
EDED
FA13
AEDE
0707
05F8
F6D3
EAF4
F8F6
FF2A
0D07
F216
E5FB
ED06
E50E
FA21
E2EB
F5F1
F709
EBDE
00C5
001A
F0DB
1904
1305
FA0B
F6F5
EA08
FCE9
E8D3
EDFA
F2F4
0CF8
13EE
0303
E906
001E
F700
FC01
C8E2
F9F9
1710
0AF5
F902
E5FD
E214
F027
E823
030C
1002
0A07
05F8
F8F4
FF09
0D0D
FA0D
FB15
E207
1406
EEDE
F9F6
05FA
20ED
130A
36EA
18E9
EC03
1720
0BF9
DF33
C9D8
1DFF
2000
BF19
C7DC
0729
EDF0
15F0
0F2D
27F5
06EA
FA0D
F810
FBE4
09E8
23F8
0409
FA18
E90D
0E0B
D7F4
EECC
C5EA
FFF4
1B08
FEFA
EB18
3009
11F2
FCFC
FBB2
BF17
D91A
05E3
01F3
B1E6
12F6
170E
FFF1
03F3
FF10
F800
CA23
110D
0113
EC10
11FA
FAED
17D5
E506
F326
FFF8
D6ED
0F18
03FD
0C06
10F4
D2FB
0719
F807
D8E2
EC0E
1006
0D16
1C08
FEF1
0CEA
31E7
F3D4
1514
28FB
00EC
0DF4
0215
BAFD
091A
FA0E
0810
FFD2
E904
26F1
E110
15EB
2BDB
0B17
E514
06E5
1605
D513
06FA
120E
F7FA
0BFE
FECE
E838
D904
2001
111D
EEFB
EFC2
0DBA
0DF2
04FF
F616
F90D
F5EB
DEE8
F3FD
FA10
FAEB
080B
1BFB
F1F8
2323
37F7
0CE7
F204
FC16
D4F3
FE1E
F91E
02CC
D50A
09F0
0EF0
FDDE
F523
DCF9
EC06
FC09
DA13
D1CB
0200
0844
28FC
1A06
F9FC
1302
F8EB
08FE
02F7
0707
0B12
E9F0
8532
0EEC
02E0
E81A
13ED
FD22
0628
16FB
F2F7
0F12
DCDD
D8D7
06E7
FED3
0419
F1FA
17DC
FD01
0413
0206
1306
0905
F6F9
0814
F6F3
0317
0706
FF08
020F
06FD
1804
FD08
0101
FD12
0910
0903
F814
0405
0007
120A
0B11
0700
F609
0C14
F5FA
FF07
0216
F105
F407
0CFE
15E8
A3D9
FB09
0605
F415
07FF
FAFA
FF10
E8F7
0DF9
2010
EC10
0612
12A4
F7EF
01EB
08DB
EDEC
D2F6
F601
FF0E
0FED
100F
E3FB
040C
EC09
B8E6
0105
10F7
0A03
F80F
E4F7
F410
1EF3
E62C
EEFA
0AF2
06FE
0CF7
F3FD
F008
16D2
F8D7
200D
DFFA
0FFC
F8FE
FB07
DFEB
D5E8
0CF2
E2FD
1BF0
FCEA
0CE9
FC08
3721
D105
0911
0A04
0AE8
13E0
E317
0FFE
FAF7
F20C
060E
0927
FFFA
11F5
1019
1D15
01F9
190F
0715
0605
FF01
0002
0104
0907
0BFC
0010
FF06
0709
0E09
0D03
0C1C
0B01
E90C
F104
EF04
FDFD
0514
F0E8
F9F9
0EF0
1808
B2F2
E9ED
EBFB
FDF9
EA09
FBFC
DAEC
28F6
F5D8
F1E6
E30E
1E1E
10EC
2EE7
F520
0DDC
0ADD
F9FB
FCE3
CEDE
E211
4116
F112
022C
0921
EEFE
FF1F
05CB
1016
B619
EA05
FA01
0EC9
14F6
04E3
1BE6
0915
1D1C
05E6
050C
03FE
FF1D
EDF2
EC08
0C09
19FE
F0E8
F5FB
FD25
FBE7
07D1
BD1C
0E1B
3415
F101
E301
F9E8
03F7
D6F5
E1DE
F1EB
DA13
FD01
0E07
0304
110A
1A0B
FE0A
FB01
0204
0C08
08FD
0D0A
0606
0EFD
0FFB
0402
FD01
0FF9
060D
0114
0107
FDEE
000C
03FF
FFFD
05FC
09FA
FD0C
0207
F2FF
170D
16FF
0902
E8DD
D6D1
19B2
08EC
0F11
1935
00DF
1B0C
DE28
F5EE
F017
F837
EAFD
F301
CEFD
31DE
0B2E
FFFB
0AD6
F000
EADB
0BE9
0E03
D9FC
21E7
2408
F5CA
FBE3
15E1
3C20
FAFA
171E
07FE
EC0D
0FFC
EBEA
FBEE
EB18
FE03
0B10
FBDB
D91B
E3EF
06F3
0A0C
ED0F
F6EF
15FC
F5F1
FFE6
FEF9
01EB
0B0A
16E6
EC03
0500
1711
01E5
E9E4
F5FD
16F7
E1F8
FE07
FBFF
FAFF
F3FA
02FC
DAFE
EFF3
02F4
FC01
FB03
00D8
FA0A
FBF3
F1F9
FB02
F900
0507
08FF
FFFF
F7F2
02ED
F9ED
1005
05F2
EFF7
FB03
FC04
F604
F9DC
000B
0C00
F6E5
FCFD
FDF3
3A16
0026
CF03
12F6
12FF
F50E
D706
F804
FE1C
21EC
EEC7
04FB
D5F8
17FE
0502
E802
361C
FD13
0613
17F0
CEFF
0406
1F06
0CF7
0722
DCCE
ECFD
021B
2722
0DFF
192B
1507
F6FD
E7F7
FE07
D9FA
05FB
12DD
02FC
E8ED
0CFA
FCFC
F205
F5E6
EEFB
FFFF
FCFB
0206
FC06
E90A
F503
FA02
E9EB
08EE
FBFE
F4FB
0118
F301
01FE
F703
1600
06E1
0E02
FFFC
1807
0D0D
F60E
FDFF
1014
0208
120E
F809
05FF
08E7
03F8
26FB
02F8
2902
EB02
F704
F912
F817
0C00
F817
E902
FA10
0505
F70E
011C
0A07
F9FB
F306
F503
0809
01F6
FA05
02DB
1812
F61D
E20D
F012
FE2D
F302
F1F3
0112
F4DF
0200
0704
2F18
331B
DCDF
090D
2603
DF28
E6CE
FB24
1316
101D
0ECB
F7E9
0CCB
23F3
04DE
EEC7
21EF
232A
1EF5
1CC7
F4FA
F5FC
0FF4
DDFE
F6E9
F7EE
F4FB
090A
FEB0
0610
EEF3
E700
0609
EA0F
08F9
0203
02FB
EBF0
F4E9
0DE0
1A07
01F2
F903
05F6
05F4
F805
00E2
060D
10FD
F2DC
FAFE
0201
EE18
F501
F7F4
FD0D
18D1
FAE5
DF04
0C05
0112
0902
0D09
FA0C
EAFE
EB15
0A07
F0FD
10FF
2100
0C1A
04E0
FA1D
E301
1C28
F4FF
FFE2
CFF2
063D
FEFA
FFD7
D50F
FA01
FB09
F5F8
03EE
ADEA
0300
25F3
040E
DDDB
12E2
01F5
E1FF
06FC
FE26
0BF0
1304
17F7
E3E2
0A04
08E4
F80B
FAEE
F80C
04FA
F2DC
1307
D314
E501
FA1D
E2FF
02FE
F40F
1F09
05F3
F029
D6E1
D3B6
FB56
E80C
F416
070C
13DE
F2E8
0005
E210
F01A
0F03
F019
CDEF
2FEA
0118
E0F7
D6F4
EEEF
16E0
1701
FCFA
FCFE
0D21
2DFF
FAFA
F3F6
D9E3
1900
1417
1B20
1A0B
07F2
CDEA
FF2C
0013
1307
1310
FBD6
08EF
D6F6
0801
0B15
CE18
0403
0CC9
FFEE
DCC2
FDEE
F2E8
0408
1430
1F0A
F7F8
E3F5
D9EA
E306
FE13
EDE6
031A
F507
04FB
1FFA
00E4
1909
FCFE
0904
2D1E
F510
1729
05E2
0407
BFFE
0CF7
FCF1
1402
17EF
ECF0
F9F9
02E2
060C
FBF5
0609
05E0
EE12
F3DD
F915
FE17
26EE
050E
04FE
F2FC
0207
081C
230D
0C29
040F
2A23
04F0
100C
1D1E
0405
F8E1
05FD
0013
E015
00DC
EFF8
CFE5
0717
0BFA
FAF6
F703
0900
03DD
DFC2
EBF6
FEF3
EF0E
FD18
EB06
FF0B
FA01
210B
1FE0
12F7
050B
01E6
0A02
F721
06ED
1905
E00C
E6FE
0004
0004
000B
0F16
EDD8
0805
EFE8
08ED
06F2
F0E3
F8D9
FBEF
FB05
0EFD
1211
FB01
0FEC
06EE
3FE2
05F6
EB1D
17F7
11EB
00FA
D9E9
EFEB
07F7
F0FF
FBF1
E7F2
D7FC
F804
01FA
FCDD
09F8
F6F5
F014
FD15
FE13
070D
06F3
0B09
01F2
07E8
11F8
2C0B
EAED
EE0C
0409
FBD8
F90D
F6E5
FE0B
0EFF
F607
0701
0DEF
0EFA
10FD
341F
EFF3
0EE6
1802
F6E1
F01A
F130
D3FC
00D0
F92B
DCE4
02E3
FCFB
FEE9
FA01
26E6
14FC
EC15
E130
EBFB
24E3
20E8
0CC7
360F
012A
28ED
2416
19EC
F5F8
0012
E5E1
09FB
1423
F016
1E04
18F2
07EA
F5DD
1F0D
05F7
E00A
0CC8
0001
F80F
08ED
FAFC
0EDC
DCFF
E71B
FEFB
F210
0501
1BDB
E4F3
F5FB
091F
1F08
0E1A
06BE
141E
02CD
E4E8
101F
1009
F3F1
0AD0
F6F4
E439
1600
F106
FF04
02E7
D109
2525
ECF9
1200
0410
0CFD
E8F2
01E8
1100
F6F6
D80E
0CFF
FFF8
F404
0B1C
CDE0
19E4
0901
0DFD
0306
20B9
0FC3
03FD
F7F4
F603
E700
FDEB
FAF3
F0F8
FDFA
14D8
0D06
EFFB
EA02
F305
EFFE
FFF8
0E07
FE00
E9F8
02F9
EFED
FC0A
06F8
FDFC
05F2
EEFF
FE08
01EF
0507
0002
E6E2
FC01
07F8
FA31
1022
F8C2
C603
01E2
0E0E
FCE1
EA13
E11B
0AEF
01E7
0AF4
1216
0408
ED0E
0102
F6F9
10FE
1A08
F5FC
E8EF
1117
E713
2527
03F3
D613
EB01
F8F4
2104
1C04
B3F4
0CFD
FDFB
F3F5
0FFB
DCFA
FAF4
04EB
FA02
0101
FEB9
0404
EFF8
E401
0405
ED05
FB05
0802
F9FD
EFF4
01E9
00E7
170A
0AF1
F8FD
FBEC
FBF6
F9F8
F6EE
020B
07FE
E7E4
F402
00EE
0EFB
1623
DCFB
0AC2
30F0
02F5
04F8
1013
1AF6
C1F7
040B
0F2F
0CFB
1514
E3F6
E8F9
0D0C
1B1F
F8DE
1901
EB02
ED0A
EBF7
FA0C
0BEB
EB00
E801
E3F0
DFEA
D50B
FBF3
ECE5
FCF3
0405
CAE5
F301
1011
EBFC
F7E8
0109
010F
010A
FD09
0900
FD1A
030A
01DB
FBED
EF0B
01F3
EEE8
E6FA
FA0D
FD0C
2001
0A05
B8EF
FE0B
FFED
DA03
FBE5
F809
0C24
1A09
FFEE
1C10
1305
22EC
1BFA
38FD
F9F8
07DB
26ED
F411
F0FD
FBEC
080B
EADA
0F11
FFF5
1DF2
0DE5
E3F5
02DF
EEFC
0610
28F8
3322
0826
1320
02FB
FDEF
1607
FF07
F31D
0222
F30C
0511
EBFD
07FA
1117
0CFE
F616
0704
F319
FFED
0B07
0107
F8FE
060B
0003
FD0A
0A1E
091A
FE10
09F8
F710
FA07
09F4
F704
FC0C
05FE
0B17
0F01
0400
F50A
0314
160B
0C06
0209
0005
081D
1005
F909
00F7
F809
1426
FAFE
190E
0502
FCFE
1206
F0FC
F502
020D
12F9
05FD
F90B
0006
F31B
1809
FF05
F9FA
EC10
1403
03ED
F306
EA21
0C0B
FB0D
